#version: 0.2
q u
h e</w>
o t
▁ e
ot ;</w>
e ▁
i n
o ▁
a ▁
i ▁
qu ot;</w>
a n
t he</w>
t ▁
& quot;</w>
r e
▁ a
o n
t i
o n</w>
e r
▁ i
t h
▁ o
e n
▁ e</w>
e d</w>
a r
in g</w>
o r
o u
s ▁
e r</w>
o f</w>
▁& qu
▁ u
an d</w>
s t
a l</w>
▁t he</w>
u ▁
e s</w>
▁o f</w>
t o</w>
a l
- @</w>
i t
r o
i n</w>
i c
n d</w>
o r</w>
a t
a n</w>
i s</w>
a s</w>
e c
o m
▁t h
p o
i l
a t</w>
▁t o</w>
▁& quot;</w>
ti on</w>
i▁ n
o▁ t
a c
o▁t ;</w>
u r
e l
s t</w>
c e</w>
s e</w>
▁ t
v e</w>
@ -@</w>
▁, ,</w>
s i
t▁ i
en t</w>
u n
th ▁e</w>
p l
▁ ot;</w>
▁i n</w>
s ;
r i
e n</w>
l y</w>
e▁ n
ot ▁
t s</w>
c h
ot▁ ;</w>
▁&qu o▁t;</w>
r e</w>
p ▁
t h</w>
e a
l i
e m
in ▁
d i
▁ s</w>
r ▁e
t▁ he</w>
an ▁
▁&qu ▁ot;</w>
▁e n
o l
r e▁
c ▁
▁w h
▁e r
▁e d</w>
t r
c i
▁a nd</w>
a p
c on
e x
u l
e s
u c
l e</w>
e▁ r
i▁n g</w>
o▁ n
m e</w>
a g
po s;
a▁ n
f f
e▁ d</w>
w h
a d
i t</w>
▁ t</w>
c om
l l</w>
s s
a▁ nd</w>
p r
i r
o▁ n</w>
v er
& qu
a▁ r
f or</w>
q ▁u
a y</w>
m ent</w>
o▁ r
l o
it h</w>
b e</w>
t y</w>
p er
a tion</w>
s h
T he</w>
g ▁
▁e r</w>
t▁ h
er e</w>
a b
a m
▁o n</w>
t ed</w>
▁&qu ot▁;</w>
e v
s p
l ▁
in▁ g</w>
s u
g h
& a▁
o o
ar e</w>
t er</w>
on g</w>
p ro
▁e s</w>
t er
u t</w>
c h</w>
w ▁
a s
▁s h
t i▁
t▁i on</w>
t▁ o</w>
v i
m ▁
o t</w>
st r
o u</w>
on s</w>
▁th at</w>
u s
b y</w>
e t</w>
l d</w>
a ti
re s
▁o r
e▁ s</w>
h a
w as</w>
▁ n
an▁ d</w>
c l
▁T he</w>
il l</w>
it y</w>
k e</w>
d ▁
o re
e▁ c
o▁ f</w>
p or
f or
pos; s</w>
at e</w>
e▁ r</w>
& a
& ▁
g e</w>
th at</w>
e t
q▁u ot;</w>
p ar
ou n
al l</w>
g h</w>
i d</w>
er s</w>
a▁ s</w>
d s</w>
ro m</w>
i s
i m
d e
▁o r</w>
▁ -@</w>
y e
r ▁o
a r</w>
th ▁a
o v
ic e</w>
on al</w>
▁b y</w>
▁f or</w>
- ▁
b e
@ ▁-@</w>
d uc
o c
▁@ -@</w>
s o</w>
o p
-▁ @</w>
a▁ t
re d</w>
s▁ t
i▁ s</w>
w i▁
a d</w>
▁ y</w>
on g
e e</w>
d ing</w>
i r</w>
r a
o w
C h
i▁ n</w>
l e
w ith</w>
th▁a t</w>
m ▁a
ur e</w>
d e</w>
l a
a▁ t</w>
▁s t
f ▁
l ▁i
an t</w>
h ▁e
▁en t</w>
ou ▁
d en
@ -▁@</w>
n ▁
& ap
on ▁
i m</w>
w ▁i
f ▁or</w>
s ▁i
l i▁
▁e c
r o▁
m en
▁T h
u e</w>
▁y ou</w>
ar y</w>
▁r e
s t▁
ea r</w>
▁th e
c o▁
uc h</w>
ci al</w>
d ed</w>
ou t</w>
ti c
d er</w>
T h
m e
a▁ l
▁p ro
a▁ n</w>
n e
o w</w>
a y
m an
e▁n t</w>
▁w ith</w>
o ver
s u▁
▁b e</w>
u t
p o▁
o▁ r</w>
c ▁a
m b
a▁ l</w>
c▁ h
▁ r
i▁ l
pl e</w>
s e
r ▁
re c
▁ h
▁a re</w>
po s▁
po s
u se</w>
p ▁o
t a
d ▁i
t▁ s</w>
t ing</w>
ou r</w>
a ve</w>
i z
gh t</w>
i v
h i
f ter</w>
ic h</w>
ti▁ on</w>
t▁ h</w>
ag e</w>
re n
es s</w>
ti o▁n</w>
▁I t</w>
th er</w>
s a
an g
▁c on
pr o▁
ore a</w>
s i▁
▁w as</w>
w ill</w>
▁b e
w▁ h
s ▁e
▁a tion</w>
h as</w>
I n</w>
n ot</w>
pr ▁o
a▁ c
& q▁uot;</w>
d ▁u
p e
m a
u b
i▁ c
m in
ou s</w>
r ▁i
▁c om
al ▁
▁e n</w>
in t
h ▁a
p re
s ed</w>
f i
a t▁i
p ▁a
&qu o▁t;</w>
at ed</w>
il ▁
s▁ t</w>
&qu ▁ot;</w>
k ing</w>
ar ▁
an ce</w>
I n
on e</w>
K ▁o
b u
c ▁o
an g</w>
d u
un g</w>
u▁ n
g r
w e
& ▁a
&▁ quot;</w>
v ▁i
▁c h
th is</w>
or e</w>
b ▁u
p ▁e
s; s</w>
f rom</w>
g i</w>
wi▁ th</w>
e y</w>
w ▁a
n o▁
s ▁a
g n
▁t s</w>
k s</w>
l ▁e
0 0</w>
v ▁e</w>
u m
s s</w>
s▁ h
▁h ave</w>
&▁ qu
t t
ti es</w>
an y</w>
▁ in
ou ld</w>
u n</w>
d i▁
pos▁ ;
w or
▁ c
m ▁ent</w>
S e
e st
ex p
a m</w>
u▁ r
i▁ on</w>
e▁ re</w>
li c</w>
&ap ▁o
▁c an</w>
&a▁ pos;
e▁ n</w>
▁& q▁uot;</w>
▁w ill</w>
l ▁a
d ay</w>
d ▁e
wh o</w>
in g
&a▁ pos;s</w>
t e</w>
si on</w>
be en</w>
d er
▁ d</w>
d e▁
c ▁e</w>
u d
l ▁o
&qu ot▁;</w>
e m</w>
s c
o ff
K▁o re
it s</w>
b ▁e
K im</w>
s ec
s ti
ha ve</w>
h er</w>
&a pos;s</w>
▁ o</w>
in e</w>
f e
d o</w>
l o▁
b le</w>
al ly</w>
e l</w>
m p
g i
▁ ing</w>
▁a t▁ion</w>
in v
m ▁i
t▁h at</w>
▁a ll</w>
r▁o m</w>
w ere</w>
▁ ot▁;</w>
f ac
e ar
w▁i ll</w>
r ▁a
r ou
u▁ c
u p</w>
ti ve</w>
▁ p
l a▁
l▁ y</w>
g en
b ▁
c c
m o
el y</w>
r y</w>
▁w or
▁l i
oo d</w>
▁f rom</w>
▁s a
Th ▁e</w>
por t</w>
s▁ tr
e▁r s</w>
w i
in ce</w>
a t▁
i▁ t</w>
i c</w>
th a▁t</w>
ou l</w>
o d</w>
o▁ u
f r▁om</w>
o ple</w>
▁sh all</w>
f ▁i
▁n ot</w>
2 0
om e</w>
l e▁
t u
▁f ir
m e▁nt</w>
re e</w>
b er</w>
s on</w>
p p
t e
▁a l</w>
▁the ir</w>
w o</w>
s e▁
pos ;</w>
▁K orea</w>
▁ m
t▁ y</w>
f t
b ut</w>
ou r
m e▁
ec t</w>
i es</w>
d ent</w>
▁m e
m a▁
▁t ed</w>
o o</w>
an s</w>
▁h as</w>
en t
1 ▁
ar d</w>
▁m a
▁wh ich</w>
v i▁
c o▁n
or s</w>
p ▁u
r i▁
y e▁
b ▁e</w>
d▁ ing</w>
u m</w>
▁p l
p res
i▁ ch</w>
ti ons</w>
m ▁e
▁W h
a▁ m
▁a fter</w>
g over
n ▁o
h is</w>
cl ▁u
o on</w>
l ed</w>
▁t a
▁i c
ong gi</w>
ro v
s es</w>
a se</w>
ab le</w>
ad e</w>
en ▁
s▁ uch</w>
▁n e
y ou</w>
com m
▁d i
u p
▁th is</w>
il e</w>
& q▁u
c y</w>
▁er s</w>
pos▁; s</w>
ac h</w>
re s</w>
l ea
un ▁
p a
s el
e▁ x
▁C h
f▁ f
or y</w>
p ▁er
at▁i onal</w>
e▁ t
w on</w>
al s</w>
&ap o▁
ac c
in c
a use</w>
▁( (</w>
C om
s a▁
▁a n
o g
K▁ore an</w>
ac e</w>
y ▁e
b out</w>
m s</w>
▁d e
b u▁
a v
h▁e ad</w>
p a▁
▁wh o</w>
d ▁a
y ▁
h a▁s</w>
re a</w>
men ▁t</w>
ic i
ic al</w>
es ti
e▁ l
y ear</w>
f o▁r</w>
al so</w>
o▁n g</w>
e st</w>
g n</w>
on▁ g</w>
c e
f e</w>
em ent</w>
p h
v en
g a
k et</w>
or th</w>
▁t i
il▁ l</w>
h ▁i
▁er n
an c
in cl▁u
u▁ l
▁d o</w>
el l</w>
w ing</w>
u s</w>
▁t h</w>
G ye
t ly</w>
ic ▁
I t</w>
v er</w>
i▁ r
f u
er ▁e</w>
▁o ut</w>
▁th ▁e</w>
c an</w>
ti me</w>
o k</w>
e a▁
a e</w>
t ▁e
t ure</w>
m y</w>
ea d</w>
er v
ur ▁
h a▁
n ▁e
y st
y o▁
f ▁a
er ▁
f in
s h</w>
a▁ re</w>
d i▁ng</w>
▁b ec
▁ 0
n i
a u
ur al</w>
at t
a▁ tion</w>
ore an</w>
▁p ar
g u
ol d</w>
o▁n s</w>
f ▁or
s ▁o
oo l</w>
i str
a st</w>
, 0
ter s</w>
ay s</w>
▁S e
▁u l
sp ec
l ic
on ▁s</w>
l s</w>
ch e
e se</w>
▁fir st</w>
th ▁e
t▁ r
p en
s it
k ed</w>
w a▁s</w>
▁I n</w>
▁&qu ▁ot▁;</w>
j u</w>
w▁a s</w>
e g
ev el
t▁ a
a▁t e</w>
l it
m ▁o
m on
▁a bout</w>
ar ▁e</w>
di ff
h o▁
no▁ t</w>
w il▁l</w>
. S
▁wh i▁ch</w>
m i▁
M in
▁ti me</w>
o▁ ut</w>
w▁h o</w>
▁d ue</w>
p ec
▁p o
m ar
n ing</w>
c t</w>
n e</w>
s ing</w>
b e▁c
P ar
il y</w>
p▁ an
f o▁
▁l oc
ow n</w>
r▁e c
ter n
▁m y</w>
b lic</w>
m ore</w>
si d
m er</w>
c oun
p▁ l
g an
▁& a
ar s</w>
p e▁r
at i▁on</w>
▁p er
g ▁a
t a▁
di s
▁b ut</w>
y ▁o
▁o ther</w>
in ess</w>
s▁ o</w>
l ec
▁sh ▁all</w>
o m</w>
en ce</w>
ou ▁n
c a▁
▁W e</w>
t e▁d</w>
o b
p r▁e
par tic
t or</w>
p ▁or
i l</w>
r u
ac h
▁sa id</w>
o p</w>
m i
den ts</w>
h ▁o
an d
ha v▁e</w>
en d</w>
el d</w>
w s</w>
yo▁ u</w>
f ir
th e▁
h e▁
i▁ d</w>
▁m e</w>
▁s e
L ee</w>
i f</w>
c ▁e
d u▁c
t wo</w>
c er
ne w</w>
ou gh</w>
w o▁r
su b
w ▁e
▁wh en</w>
y ing</w>
▁) )</w>
m or
er ▁s</w>
b▁u t</w>
ec h
n ow</w>
pro v
p re▁
o▁ m
▁Th is</w>
oo k</w>
or ▁
▁w e</w>
es s
n ▁u
st er</w>
a me</w>
la st</w>
▁h e</w>
&a pos;
▁N orth</w>
ch ool</w>
K orea</w>
▁2 0
u st</w>
re g
ti v
l l
v en</w>
ati ons</w>
ver y</w>
o o▁
a▁ y</w>
g y</w>
ac t</w>
e s▁
▁s o</w>
a ir
▁i ch</w>
ou th</w>
i ght</w>
m▁ ber</w>
▁r ec
I ▁
o l</w>
w n</w>
▁y ear</w>
o▁r d▁ing</w>
pl ▁a
wh ▁o</w>
ex t</w>
d ec
r a▁
e w</w>
e▁ ss
d el
o p▁
▁loc al</w>
n o</w>
l so</w>
li on</w>
o per
st s</w>
v ing</w>
z e</w>
l ▁e</w>
sa id</w>
g et</w>
hi gh</w>
n ec
Min ▁i
g u</w>
in k</w>
p▁u blic</w>
▁a ti▁on</w>
h ▁e</w>
p an
a▁ g
f ic
c es</w>
gover ▁n
y▁o u</w>
il ▁i
t e▁
▁p re
.S .</w>
s ur
▁h is</w>
ft ▁er</w>
over n
b ▁i
f t</w>
th an</w>
z ed</w>
fu l</w>
b ▁y</w>
▁y our</w>
v ed</w>
f ▁e
▁er ▁
em b
c re
h e
&ap▁o s;
o▁ p
t ▁ed</w>
man y</w>
A cc
p ub
j o
G ye▁
c ▁i
c ul
a▁ ll</w>
m ot
ren t</w>
ac k</w>
ac ▁
ar ge</w>
▁I f</w>
s ▁e</w>
res ▁i
sh i
m pl
a ss
▁r es
b er
c en
c▁ h</w>
t i▁ng</w>
G u</w>
d ▁er</w>
for m
ing s</w>
▁a lso</w>
g▁ h
f f</w>
&▁qu o▁t;</w>
ul t</w>
a s▁
t ary</w>
▁p e
▁w i
wi t▁h</w>
str y</w>
p s</w>
gan iz
c ol
th ey</w>
w ay</w>
or ▁e
p o▁r
▁o ne</w>
th ▁r
▁m ay</w>
r an
d▁u c
▁ on
m an</w>
&a pos;</w>
f ol
t u▁
lo c
▁h i
a k
▁ an
ati ve</w>
d y</w>
mb er</w>
ov ▁ern
l u
▁bec ause</w>
d o
ti ci
t ri
lo w</w>
g g
ha d</w>
h i▁
as ed</w>
p▁ ro
▁m o
in▁ ce</w>
re f
bu▁ t</w>
▁th ere</w>
t▁ ing</w>
p ri
w e</w>
▁f i
s▁ p
j ec
▁wh ere</w>
w ▁or
ic▁ h</w>
A ▁
m it
a▁ ri
s ;</w>
s si
l▁ d</w>
at er</w>
i gn</w>
▁r el
j ect</w>
ul d</w>
t ee</w>
&apo▁ s;s</w>
we en</w>
com e</w>
m ay</w>
in t</w>
v ir
it e</w>
s uch</w>
i d
al▁ l</w>
▁m on
c or
il i
t ur
i▁ t
e▁n ts</w>
n der</w>
▁p r
ou nd</w>
cl u
min istr
on g▁
▁v i
A r
wi▁ ll</w>
u r</w>
tr o▁
st ed</w>
p▁a r
ou▁ gh</w>
ot her</w>
man ag
&a pos▁;s</w>
ut e</w>
▁be en</w>
k ▁e
S ▁
mor ▁e</w>
▁u nder</w>
at ing</w>
s▁ u
b o
a▁n ce</w>
Se oul</w>
lit an</w>
▁f in
t▁ e</w>
A ss
e duc
Gye▁ onggi</w>
▁e ar
a▁ d
i▁ ty</w>
ot h
f o▁r
A s</w>
g s</w>
m ▁e</w>
a▁ r</w>
n▁u m▁ber</w>
n ▁a
l ing</w>
th e
1 0</w>
a▁ ir
c o
ar i
s▁tr y</w>
Acc o▁rd▁ing</w>
re n</w>
▁Th ere</w>
m o▁
p e▁
C ▁h
v es</w>
o k
l▁ l</w>
P rov
t en
T ▁
▁ 0</w>
p e</w>
▁d on</w>
ro▁ m</w>
pl y</w>
▁d is
p t</w>
c▁ on
ti onal</w>
P ro
y s</w>
p a▁r
e d
g o</w>
con ▁
u▁ se</w>
n▁ d</w>
▁I n
K o▁
v e▁
lea se</w>
▁u r
h ▁
a▁r y</w>
ti ▁es</w>
s o▁
ea m</w>
at es</w>
si gn
le g
a t▁ion</w>
i▁ m
▁li ke</w>
a fter</w>
e ach</w>
,0 00</w>
G ▁
e k</w>
for e</w>
k e
b e▁t
N at▁ional</w>
P ▁
n ed</w>
s he</w>
i▁ ci
P res▁i
d evel
e▁ t</w>
&▁qu ▁ot;</w>
▁th e▁re</w>
U n
s ity</w>
s an</w>
20 1
Par k</w>
b e▁
wor k</w>
el ec
&q▁u o▁t;</w>
in c▁
an▁ ce</w>
▁wh ▁ich</w>
▁ o▁t;</w>
incl▁u ding</w>
yst em</w>
v ▁e
d ic
ou ▁t</w>
duc t</w>
s ul
si c</w>
▁s u
str u▁c
oun g</w>
wh en</w>
tr an
▁t er</w>
f ▁o
esti g
at i▁
a▁ p
▁o ff
▁th an</w>
ati o▁n</w>
v ice</w>
&q▁u ot▁;</w>
▁en t
b ▁a
s▁ s</w>
un i
t o▁
v a▁ri
ati onal</w>
h▁a s</w>
▁q u
in ed</w>
▁w ould</w>
m all</w>
in a</w>
co▁ m
men ts</w>
▁G u</w>
ti al</w>
▁w ere</w>
&qu ▁ot▁;</w>
b us
rou gh</w>
w▁i th</w>
&a▁ po▁
om ic</w>
c ri
J e
▁Se oul</w>
el ▁
b i
▁th ▁e
wh ▁en</w>
ic es</w>
▁e ment</w>
i ve</w>
o se</w>
or e▁
l ice</w>
em s</w>
E ▁
ro▁ v
ar t</w>
em pl
st ing</w>
ri al</w>
r d</w>
d ▁s</w>
li▁ on</w>
v e
▁m ore</w>
per i
th out</w>
g re
▁Y ou</w>
com p▁an
lo w
2 ▁
s en
ti o▁ns</w>
▁P ar
ss ▁i
the▁ y</w>
et ro
▁pe ople</w>
in ing</w>
ev en</w>
m i▁l
l es</w>
sel f</w>
o▁ uld</w>
K orean</w>
wh ich</w>
d g
an ge</w>
con ▁t
H y
it ed</w>
b r
tr y</w>
sa i▁d</w>
m▁i tt
&ap▁o s;s</w>
un▁ g</w>
▁f or
▁th ink</w>
al e</w>
▁h ad</w>
E n
o▁ un
or▁e a</w>
c e▁
che on</w>
bu s▁
o▁ ff
A l
ha▁ ve</w>
th▁e y</w>
exp ▁ec
k ▁e</w>
on▁ g
pl ▁e</w>
r d
I f</w>
f i▁
con t
e▁n ce</w>
e p</w>
▁th ree</w>
s▁a id</w>
▁b u
n e▁
C on
f ▁u
M e
▁a n▁d</w>
co▁ mp
w▁ on</w>
G ov▁ern
g▁ h</w>
h y
k ▁
p ul
at ▁ed</w>
▁the y</w>
at▁ e</w>
d u▁
S t
a▁ sed</w>
&▁qu ot▁;</w>
▁be ing</w>
▁A s</w>
▁K orean</w>
me▁ mb
▁& q▁u
res s</w>
em ▁
▁w on</w>
a▁ b
▁K im</w>
in ter
sh ed</w>
a▁n g
m at
on ly</w>
m▁a r
ss ed</w>
er al</w>
li sh</w>
ri es</w>
al iz
r ic
h▁a ve</w>
ar g
an n
re st</w>
ap pl
▁d ay</w>
O ▁
shi p</w>
Min▁i s▁try</w>
y▁e ar</w>
t ech
▁wh ile</w>
m▁ on
▁l ea
S h
per for
in ▁t
y our</w>
str uc
ro w
an ag
v ent</w>
S ▁e
com p
re a▁
▁& ap
U .S.</w>
i▁ al</w>
t▁i es</w>
st u▁
▁w ant</w>
re l▁e
a in</w>
t▁ u
w ▁e</w>
e ff
s o
c .</w>
▁c o
est ab
▁ec t</w>
pr ▁i
mo st</w>
m i▁n
g ▁o
d ▁o
▁S outh</w>
▁&qu ▁o▁t;</w>
th▁a n</w>
el i
ye onggi</w>
▁or ▁
ci l</w>
tr ▁a
i al</w>
th e▁r</w>
re▁ d</w>
c ed</w>
ti▁ ons</w>
ov er</w>
h i▁s</w>
t in▁g</w>
si ve</w>
i gh
d n</w>
r ▁u
s ch
a ir</w>
c a
in d</w>
▁i ty</w>
s ome</w>
or ganiz
b ▁o
o▁ l
co▁ un
▁a tio▁n</w>
ou se</w>
ou l▁d</w>
f ro▁m</w>
c ur
t▁ ur
▁d o
▁en ts</w>
▁s up
m ▁u
b ec
n ext</w>
▁i s</w>
or t</w>
k i▁ng</w>
ot i
t▁i me</w>
e p
o▁n g
e ther</w>
e f</w>
▁u se</w>
2 0</w>
li ke</w>
re si
k ers</w>
op▁ le</w>
v ate</w>
w er</w>
n v
a p▁
s e▁r
si t</w>
▁i nv
th ▁
nec e▁ss
&apos; ▁s</w>
g in
il ity</w>
gen cy</w>
c a▁n</w>
o▁n e</w>
qu i
m it</w>
f am
as s</w>
▁P lease</w>
d ▁ed</w>
▁f e
va▁ri ous</w>
P ro▁v
▁h ead</w>
den ▁t</w>
ec on
th em</w>
a▁ ble</w>
m is
▁g o</w>
s▁i on</w>
&a▁pos; ▁t</w>
ic s</w>
v e▁r
▁ma ke</w>
n▁o t</w>
ow ▁e
ti e▁s</w>
&a▁pos; ▁s</w>
f e▁
a▁ use</w>
s is</w>
ap p
h o
b o▁ut</w>
our t</w>
on ▁e</w>
i▁ d
m er
t▁i v
fe ty</w>
s ung</w>
il d
al l
▁l ot</w>
an c▁e</w>
▁s p
▁wh ic▁h</w>
er y</w>
a k</w>
▁m ar
a▁n cial</w>
in i
us ▁e</w>
lo b
m un
▁g re
▁H e</w>
por t
ter m</w>
▁y ear
us ed</w>
n ly</w>
a▁ ted</w>
sp ▁e
▁com p
s erv
a▁ tio▁n</w>
ic ▁e</w>
▁en ▁
a▁ m</w>
▁c oun
tic al</w>
m ed</w>
▁t i▁
▁t y</w>
▁s ub
re sp
si de</w>
▁a ft▁er</w>
n er</w>
▁i es</w>
o f▁f
di a</w>
com pl
w e▁
off ▁i
▁w e
wh ▁e
em en
▁ re</w>
▁e t</w>
m il
c ess</w>
u▁ n</w>
s ol
ro w</w>
▁g o
i m▁
e▁n t
R e
c u
l ine</w>
▁con t
▁O n</w>
d▁u r
an k</w>
an▁ g</w>
▁a cc
j or</w>
▁p ri
y ed</w>
u▁ t</w>
b l
▁g u</w>
c oo
ong▁ gi</w>
1 9
l ong</w>
ta in</w>
d e▁d</w>
c k</w>
al th</w>
l e▁c
▁g et</w>
tr a
re l
▁s t▁
t▁i onal</w>
m▁a n</w>
▁c l
p port</w>
▁b et
▁a tt
▁s i
ou▁ ld</w>
▁b o
▁l o
po litan</w>
▁a t</w>
th i▁s</w>
d ong</w>
▁t ural</w>
o day</w>
overn ment</w>
ti on▁s</w>
▁f ac
s k
k es</w>
im pl
▁m at
▁j o
ati c</w>
m a▁r
it al</w>
▁t im
▁a bo▁ut</w>
ab ▁
in to</w>
at e▁d</w>
no▁ un
&▁a p▁o
ot h</w>
g▁ n
duc ts</w>
di sc
j u
rou p</w>
le m</w>
an▁ g
in for
ov ▁er</w>
th in</w>
. ▁
ar ▁y</w>
▁ta ke</w>
f ul
▁p h
h▁e n</w>
n ol
▁r a
ch ▁
o pl▁e</w>
po s▁i
▁s ince</w>
in s</w>
T▁ he</w>
al u
vi de</w>
d in▁g</w>
ch ▁a
s▁ ;
sa me</w>
for m</w>
i▁ s
Al t▁h
p ur▁
n to</w>
r on
tu▁ re</w>
in f
▁o nly</w>
re▁ c
u▁n g</w>
▁m ade</w>
p▁e ople</w>
on ▁al</w>
c▁a n</w>
C ▁
ex ▁
d a
u al</w>
H ow▁e
▁sh ould</w>
ac ti
par ▁t
▁t ra
c▁o m
▁i ts</w>
w ell</w>
i▁ ce</w>
R W</w>
r it
re ad
in st</w>
d em
I▁ n</w>
3 0</w>
▁e nd</w>
h el
▁t wo</w>
iv e▁r
en s</w>
r am
▁e st
s▁ on</w>
oc k</w>
t re
an ts</w>
▁i nto</w>
p er</w>
a▁n g</w>
A ct</w>
ab or</w>
h er
c i▁
gover▁n ment</w>
in du
▁a ga
air s</w>
m ong</w>
b i▁l
t em
j ▁u
ti c</w>
sa▁ id</w>
al i
t▁ ic
th ing</w>
n d▁er</w>
gover n
ea▁ r</w>
g ood</w>
Gye ong▁gi</w>
▁@ -▁@</w>
h eld</w>
ou▁ nd</w>
▁&a pos;s</w>
th▁r ough</w>
ag ▁e</w>
▁th rough</w>
d es
ss u
g▁h t</w>
▁c ol
▁p ol
&▁a pos;s</w>
ow er</w>
is h</w>
a il
a▁ ge</w>
u▁ sed</w>
▁di ff
t ors</w>
Th is</w>
▁p a
▁D o</w>
in sti
▁n o</w>
d en</w>
l and</w>
m es</w>
▁d ec
▁a tive</w>
▁i ce</w>
i▁ m</w>
a ff
d om
U ▁n
m a▁n
the ir</w>
s; t</w>
h▁e ld</w>
▁h ere</w>
C ity</w>
com ▁p
o▁r t</w>
ni ver
et ing</w>
ic t</w>
h ol
▁Wh at</w>
sit u
v el
K ▁
▁s uch</w>
f are</w>
▁or▁ der</w>
ad ministr
▁S t
v el</w>
g e▁n
un der
t▁ or</w>
W h▁en</w>
re p▁or
o i</w>
E x
in u
▁p ur
P ▁a
o▁ ple</w>
in c▁e</w>
ov e▁r
com ▁
&a▁ pos▁;s</w>
an▁ t</w>
ri en
th ▁er</w>
ha ir
u nd</w>
o▁r s</w>
un g
th s</w>
re pres
▁wor k</w>
t▁ ure</w>
com pe
me ▁e
pan ies</w>
s e▁c
il d</w>
sti c</w>
por ts</w>
s y</w>
▁e m▁ent</w>
s y
W h
Ch ▁in
▁o m
w ar
on a▁l</w>
e b
e▁c t</w>
inv estig
en vir
S e▁
i▁ r</w>
W e</w>
&a▁pos; t</w>
t og
▁T r
d a▁y</w>
ad v
I n▁
▁t ur
2 ▁0
om e
▁an y</w>
g r▁o
r▁e n
▁i l
▁l arge</w>
&▁a po▁
ul ar</w>
▁the se</w>
en ter</w>
▁i z
p pl
a▁n t</w>
▁ne w</w>
a u▁se</w>
par t
y ment</w>
▁er ▁e</w>
▁b us
J ▁a
▁o ur</w>
ta ke</w>
ur ing</w>
▁l a
er n</w>
or d
op e</w>
Y e
as es</w>
ub lic</w>
k en</w>
il l
lob al</w>
k in▁g</w>
▁a n</w>
ec o▁n
ad ▁
re gi
tic le</w>
rec ▁e
▁h ow</w>
d ev
w er▁e</w>
e a▁r
g o
M oon</w>
ex ▁p
om y</w>
m ade</w>
r▁e f
al ity</w>
&a▁pos; m</w>
y ung</w>
or i
man ce</w>
fir st</w>
K ore▁
▁the m</w>
s ▁ec
incl▁u di▁ng</w>
▁c i
sec ▁u
▁t er
1 0
s▁ s
e▁ st
w ard</w>
su▁ r
▁ m</w>
h ead</w>
a st
▁g ood</w>
fol l▁o
b i▁
mit tee</w>
▁&q▁u ot▁;</w>
d ical</w>
▁C om
f un
▁o ver</w>
▁c ould</w>
▁n ow</w>
we ▁en</w>
▁pl ace</w>
d ays</w>
tici p
e f
N ▁a
di r▁ec
s▁e con
▁g r
▁year s</w>
t▁h er</w>
k ▁ing</w>
▁y ea▁r</w>
l f</w>
g o▁
▁ g</w>
b o▁
an▁ y</w>
▁e e</w>
e▁ e</w>
st a▁n
d o▁
▁wh e▁re</w>
en se</w>
am p
bus▁ iness</w>
st a
tic s</w>
▁k now</w>
su m
n am</w>
▁r ea
▁A r
pos▁ ;</w>
er i
G w
5 0</w>
M ▁a
h ou
ov ▁er
ti▁ me</w>
u▁ p</w>
s▁ ted</w>
▁c re
pos▁; t</w>
ma in</w>
iv ed</w>
▁h el
s k</w>
u gh</w>
A d
at a</w>
a re
Ko▁ rea</w>
o▁ ur
▁s mall</w>
v e▁n
lo wing</w>
D em
i▁ c</w>
an no▁un
w o▁n</w>
k ▁s</w>
M etro
v ol
▁u nd▁er</w>
pub lic</w>
di t</w>
n i▁ng</w>
K▁ore a</w>
us an</w>
sh ▁o
per ▁
de p
d le</w>
g ▁i
D o</w>
▁A t</w>
ra m</w>
▁G yeonggi</w>
e red</w>
a▁l s</w>
U S</w>
&▁a pos;</w>
d▁ o</w>
en tr
di um</w>
▁g u
▁w om
on d</w>
i▁ f</w>
re ign</w>
h▁i s</w>
or ▁s</w>
i▁n ce</w>
u▁ s
si a</w>
t eam</w>
fi ed</w>
m ul
m o▁n
▁ne ed</w>
▁a ▁
oun t</w>
D a
p▁e op▁le</w>
m▁ in
▁s pec
k er</w>
P ▁o
▁20 1
e w
▁o per
am ▁e</w>
D i
▁m any</w>
▁f ol
▁th er▁e</w>
den ▁ts</w>
sp▁e cial</w>
t ro
▁s al
▁t ri
ici al</w>
l ev
o ci
▁1 9
c▁ re
b ro
f y</w>
S ec
fo▁ re</w>
p ed</w>
um an</w>
j ▁o
int ▁e
p ur
au th
a▁n s</w>
e ty</w>
wor ▁
m▁itt ee</w>
▁h e
ag ▁a
g e
du ce</w>
en t▁
v al</w>
▁or der</w>
j e
ti z
▁r e▁
ch ar
st ri
infor m▁a
lic y</w>
▁i m</w>
Me tro▁
l▁i ty</w>
i▁n e</w>
▁s ti
w▁h ich</w>
d▁ur i▁ng</w>
c ▁en
j ▁ect</w>
t ural</w>
d oc
pe ople</w>
ti l</w>
en ts</w>
he▁ ad</w>
ha▁ d</w>
il lion</w>
ag re
▁comp any</w>
ma ke</w>
ach ed</w>
c ity</w>
c▁a se</w>
p▁ h
w▁ n</w>
g ▁u
b lem</w>
▁s erv
▁i al</w>
fin a▁ncial</w>
a▁r d</w>
reg ul
c ar
ut ure</w>
con stru▁c
i ber
ea d
E duc
▁r ev
u mber</w>
i▁n cial</w>
▁ ot
s m</w>
m a▁t
i t▁
ev er</w>
an ▁s</w>
▁g overnment</w>
▁fir s▁t</w>
▁l ast</w>
in d▁u
T ▁h
c u▁r
▁ 1
f▁i r
i▁ le</w>
sp or
▁e mb
g▁ r
j o▁
ac k
s f
n▁ ing</w>
▁J ap
s▁ chool</w>
st om
c al
ar ch</w>
e▁ m</w>
l ▁u
comp▁an i
sit e</w>
g a▁
d ul
c▁ t</w>
al k</w>
emb ers</w>
▁w ay</w>
i s▁
re qu
i se</w>
e▁ st</w>
c e▁r
an▁ d
▁wh at</w>
f es
po li▁
si ble</w>
su sp
O rd
vi l</w>
o c▁
inc r▁e
comm un
t▁h a▁t</w>
f▁or mer</w>
c ap
▁t re
d▁a y</w>
▁K or▁ea</w>
em ber</w>
at t▁
▁h er</w>
u ty</w>
su res</w>
l in
&ap▁o s▁;
f a
s; ▁s</w>
o s</w>
▁ch ec
▁s ec
▁M y</w>
devel o▁p
▁e very</w>
su▁ l
f ood</w>
ex per
f▁ rom</w>
um p</w>
P r▁o
y in▁g</w>
tu al</w>
qu ▁a
us ing</w>
og y</w>
ag es</w>
&▁a pos;
▁rec e
w e▁re</w>
g es</w>
▁m an</w>
g ed</w>
▁h eld</w>
l ess</w>
loc al</w>
f our</w>
s ons</w>
i or</w>
▁r ight</w>
al ▁s</w>
s er▁
gr ▁a
▁a mong</w>
appl ic
m .</w>
la y
p u▁
d ue</w>
▁ st</w>
fac il▁i
re▁ as
▁ma jor</w>
ye ars</w>
diff ▁ic
ti m▁e</w>
in ▁e
. m.</w>
ye▁ ar</w>
m ov
rou nd</w>
fi ve</w>
be▁t ween</w>
c el
th▁r ou▁gh</w>
1 st</w>
s▁o cial</w>
4 th</w>
p▁o lice</w>
ot al</w>
▁c ed</w>
re in
S u▁
D e
s c▁h
n g</w>
▁i c</w>
rel▁e v
gh ts</w>
m u
▁t e
ea se</w>
li fe</w>
ili ties</w>
be▁c a▁use</w>
▁b r
an cial</w>
ut es</w>
por ▁t</w>
ci a▁l</w>
gh ▁t</w>
b ▁ec
g an</w>
Pres▁i dent</w>
jec ts</w>
e s▁t
▁H ow</w>
w a▁
5 th</w>
▁ 00</w>
S u
a rea</w>
ou▁ r
u tion</w>
d e▁r</w>
d e▁c
c an
ex pl
e x</w>
K▁o re▁
t en</w>
h o</w>
m ing</w>
al s▁o</w>
di t▁ional</w>
y u</w>
re▁ qu
c are</w>
fi re</w>
u dents</w>
t▁h an</w>
form ation</w>
partic ▁u
A r▁
g er</w>
▁m anag
c e▁n
ar▁ d</w>
sh o▁
j ▁
K i▁m</w>
I ▁n
in▁ to</w>
ex t
f a▁
▁i on</w>
in st
d ly</w>
su▁ b
ari ous</w>
t al</w>
att e▁n
ild ren</w>
K ▁im</w>
▁c ar
▁w ell</w>
w ays</w>
su▁ ant</w>
7 th</w>
▁er▁ red</w>
y o</w>
ne g
▁f am
u▁ m</w>
y ang</w>
re al</w>
▁in ce</w>
d et
i▁ z
exp▁ec ▁ted</w>
den ce</w>
si gn</w>
read y</w>
p▁e opl▁e</w>
H e</w>
ou▁ r</w>
▁s tr
coo per
t es</w>
pr ot
d a▁
▁hi gh</w>
th ▁is</w>
i▁r st</w>
duc ed</w>
▁e ff
ri me</w>
8 th</w>
N or
ri ed</w>
off▁i cial</w>
me a▁
li o▁n</w>
la▁ ted</w>
e▁x p
p▁ re
n s</w>
▁a ge</w>
b ed</w>
a f
▁y e▁
ou s
sh ing</w>
jo b</w>
t ory</w>
ess ary</w>
d▁i d</w>
▁sup port</w>
tern at▁ional</w>
p▁ ri
▁p res
s om
si o▁n</w>
en▁ ce</w>
in ter</w>
on▁ ly</w>
J a
ye on</w>
a▁r ge</w>
s▁ um
t e▁r
c r▁e
b as
s ▁en
s on
▁th▁e ▁re</w>
▁y oung</w>
t ▁er
o▁u nd</w>
po pul
be e▁n</w>
po se</w>
r▁e d</w>
ap p▁
t▁i ons</w>
n ov
▁ec ▁ted</w>
t le</w>
re▁ l
l on▁g</w>
le ar
i▁ p
G ▁o
▁ l
de o</w>
J ae</w>
▁bet ween</w>
▁n ext</w>
wi▁ thout</w>
s▁ he</w>
th en</w>
N orth</w>
a▁ tions</w>
y i▁ng</w>
res i▁
▁&ap o▁
R es
▁t ry</w>
J ▁u
y e</w>
em▁ b
▁E n
E O</w>
re▁ g
h n</w>
a▁ d</w>
ir d</w>
g lish</w>
m▁a de</w>
▁ .
ol s</w>
be▁t we▁en</w>
▁s ee</w>
▁s chool</w>
et c</w>
re as
Metro▁ politan</w>
▁w ater</w>
e▁ as
at ely</w>
T r
tr a▁
ic ul
▁p ublic</w>
▁n ec
i▁ ll</w>
▁e m</w>
n cre
▁i ncre
G ang
o▁u l</w>
o▁u s</w>
com p▁
▁re g
ch ed</w>
si tion</w>
ss ue</w>
▁v is
con t▁
st ▁er</w>
eco▁n omic</w>
▁l e▁
ou ▁s</w>
W ▁e</w>
▁d evel
rel▁ev ant</w>
en ter
s er
▁j ust</w>
▁c er
▁a ry</w>
s uc
on ed</w>
▁u sing</w>
si▁ on</w>
oc c
en tion</w>
ol l
x pec
▁g en
ab out</w>
y p
at h</w>
A n
pp o▁rt</w>
b▁ le</w>
▁c a
▁g o▁
c r
t i</w>
iv ing</w>
S a▁m
j u▁
ex ec
j in</w>
con tr
▁e ven</w>
o▁ se</w>
O▁ ff
M ▁in
▁e l</w>
st▁ r
pur▁ su▁ant</w>
i▁ ts</w>
P▁a r
d ge</w>
re sid
g r▁e
D ec
ab▁ le</w>
▁per son</w>
6 th</w>
iz e</w>
▁com pl
▁ a</w>
ren ce</w>
row th</w>
iz ed</w>
h im</w>
w an</w>
p u▁r
m ▁en
al f</w>
a▁ e</w>
▁ear ly</w>
mon th</w>
▁u e</w>
c re▁
m ea
j ust</w>
ch i▁l
gen er
▁st ud
t▁i o▁n</w>
▁e ach</w>
clu ding</w>
f i▁n
ta x</w>
b el
si an</w>
g ing</w>
▁go ing</w>
▁Par ty</w>
p▁ r
▁u n</w>
ay ▁s</w>
Ja p▁an
p ing</w>
▁c ur
in ance</w>
K or▁ea</w>
ou ▁t
s▁econ d</w>
wh i▁ch</w>
her e▁
di s▁
J ap
▁m in
en ▁t</w>
pro▁ v
Ch oi</w>
A n</w>
i▁ ght</w>
▁L ee</w>
resi dent</w>
▁e xpec
d ers</w>
▁pr ice</w>
w▁ ant</w>
▁&ap ▁o
su▁ pport</w>
f u▁
exp ec
n at▁ional</w>
f er
▁J e
d ▁ent</w>
i▁ th</w>
e▁ w</w>
▁s ol
th ▁o
u s▁
S ▁t
f il
here▁ in
D e▁
en ▁t
mpl o
▁ec ted</w>
int e▁n
v i▁ng</w>
s ure</w>
t u▁r
y▁ st
se as</w>
0 ▁0</w>
vi e</w>
us t▁
▁or t</w>
▁d ays</w>
po▁ litan</w>
u▁ re</w>
h ic
C o▁m
▁wor ld</w>
c u▁l
▁m uch</w>
▁sti ll</w>
&a▁po▁ s;s</w>
lo gy</w>
▁a ss
r▁ef ▁er▁red</w>
al l▁y</w>
fo▁ reign</w>
ri end</w>
mar ket</w>
D ▁i
1 .
di rec
a▁ ti▁ons</w>
▁gre at</w>
▁I s</w>
▁U .S.</w>
v ic
D ▁e
b an</w>
d es</w>
1 00</w>
Wh en</w>
O ff
1 5</w>
▁M ay
▁C an</w>
m▁ an
ad di▁
b ▁r
▁t or</w>
foll▁o wing</w>
a▁ se</w>
▁w at
g ram</w>
m uch</w>
ver ▁
here▁in after</w>
f▁a m
s em
▁1 0</w>
▁pro duct</w>
al▁ so</w>
v e▁r</w>
a▁ir m▁an</w>
ang ju</w>
am s</w>
e▁c tion</w>
▁t eam</w>
▁r em
v ey</w>
▁u sed</w>
k n
tiv ely</w>
ch ing</w>
▁f il
▁g roup</w>
pr▁i vate</w>
lo▁ w
a▁n y</w>
▁r o
U ▁
vi ew</w>
o▁ t▁
spec i
lec tr
be ▁en</w>
wh ▁ich</w>
n▁o w</w>
si b▁i
c▁ l
▁mo st</w>
th ere</w>
s▁h o▁uld</w>
S t▁
ne l</w>
▁bus iness</w>
de par▁t
er gy</w>
▁p l▁
ri ght</w>
d r
d i▁c
▁b a
n on</w>
i▁ ve</w>
▁t oday</w>
wh at</w>
o▁un t</w>
oun d
▁D a
▁ent al</w>
a▁ red</w>
▁f un
off ▁ic
le▁ ad
m▁ar ket</w>
Pres▁i den▁t</w>
nol ogy</w>
a ut
no▁ w</w>
▁s o
d get</w>
▁wh y</w>
ar ▁t
vi s▁i
ro om</w>
a▁ li
B ▁u
▁d id</w>
s e▁s</w>
or por
Gye ong
L i
s ▁er
al▁ ly</w>
b ility</w>
o▁u r</w>
g▁ u</w>
ye ong</w>
v ▁er</w>
v ▁a
re▁ e</w>
r ap
wh ere</w>
esti g▁a
e▁ ss</w>
c▁h a▁rge</w>
▁li fe</w>
▁A ct</w>
l▁i ke</w>
s▁ ts</w>
▁d el
t oo</w>
pre me</w>
B ▁
▁be fore</w>
e▁ y</w>
fi c</w>
c ou▁n
H ▁
t▁i c</w>
h ow</w>
e t▁
T ▁his</w>
S ▁o
w▁e ll</w>
sti tu
in cial</w>
i on</w>
d own</w>
▁Ch ina</w>
te st</w>
p▁er s▁on</w>
▁h ear
▁h im</w>
si ons</w>
ent ly</w>
▁rel ated</w>
cl u▁
▁l ong</w>
oun ▁d</w>
n te
ic ▁i
e k
▁ul ar</w>
▁th a▁t</w>
op ment</w>
e qu
▁n umber</w>
su p▁
r atic</w>
Ch▁in ese</w>
▁t o▁t
▁er ing</w>
t▁ ra
o s
2 nd</w>
▁b a▁sed</w>
w▁h en</w>
vi ous</w>
h▁i gh
▁v ery</w>
m▁i t▁
▁s ome</w>
ft e▁r</w>
m ▁s</w>
▁& a▁
▁d r
▁a ppl
▁b i
dom ▁e
g ▁en
diff ▁e
s o▁n</w>
ch ▁e
i t▁s</w>
▁Wh en</w>
ol e</w>
he rein
o▁t▁ ;</w>
▁t ran
m▁ p
d e▁nt</w>
ren g
h ome</w>
a f▁f
la w</w>
manag ▁ement</w>
st ory</w>
p ment</w>
▁i nte
&apo▁ s;</w>
ac ▁e</w>
mb ▁er</w>
e▁ m
part ment</w>
C ▁o
▁f ore
▁d uring</w>
el ▁y</w>
▁com panies</w>
c t
w r▁i
v ▁er
be▁c au▁se</w>
anc es</w>
▁s it
m o▁ng</w>
▁sh ow
Com mi▁
▁er▁ re▁d</w>
1 2</w>
duc ation</w>
op e▁r
b▁e fo▁re</w>
c▁o un
▁Th e▁re</w>
i▁ l</w>
a▁m o▁unt</w>
f a▁c
den t▁s</w>
T a
at ▁es</w>
con ven
is m</w>
i ed</w>
t▁i z
ot e</w>
ref ▁er▁re▁d</w>
pl ace</w>
e▁n tial</w>
x i
pe▁r c
▁K o▁
K RW</w>
G over
ea v
F in
de ter
▁an n
y pe</w>
t▁iv ely</w>
our s</w>
bu i▁l
w a▁y</w>
inv estig▁a
il i▁
f ra
Jap▁an ese</w>
s i▁ng</w>
po l▁i
in e▁d</w>
dev e▁
st or
n▁e ed</w>
J ung</w>
ex hi
▁mar ket</w>
exper ▁i
ci es</w>
in ts</w>
R ▁e
po▁ int
por ▁t
ss▁i on</w>
in di
▁p ower</w>
▁a rea</w>
m p</w>
i▁ ded</w>
▁s ystem</w>
re as</w>
e▁ l</w>
leg al</w>
▁par ty</w>
u th
re▁ ce
oo▁ d</w>
pro▁ duc
P▁ rov
d ▁e</w>
ch air
u l</w>
o▁r y</w>
ex peri
▁c ul
▁wi thout</w>
h ere</w>
at▁i ons</w>
b▁e en</w>
R eg
▁diff e
▁B usan</w>
re▁ la▁ted</w>
▁i li
prov i▁ncial</w>
un d
▁&a pos;
V i
I ▁t</w>
re q▁u
du stry</w>
P a▁r
th a▁n</w>
b all</w>
mot e</w>
,0 ▁00</w>
▁a ting</w>
▁U n
jo y</w>
oo m</w>
ch i
a▁r s</w>
▁aga in</w>
im po▁r
▁h o
ad ▁e</w>
▁Th ey</w>
▁i t</w>
▁t ure</w>
tr ▁o
ye es</w>
d ate</w>
▁h ope</w>
▁w oul▁d</w>
a▁ y
F or</w>
lo or</w>
op ▁er
partic ▁ular</w>
v▁i ded</w>
u fac
ss es</w>
N ew</w>
t▁h em</w>
w ang</w>
istr y</w>
be st</w>
Ch ina</w>
re n▁
t▁ ly</w>
h u
re▁ ase</w>
&ap▁o s;</w>
ss ▁ed</w>
pl an</w>
f l
por ted</w>
ou t
▁pl an</w>
▁t otal</w>
ro ad</w>
e▁ ff
▁chec k</w>
▁th ose</w>
d r▁e
s▁ ing</w>
▁% %</w>
s n</w>
w▁i th
r ate</w>
ar ▁s</w>
li▁ ke</w>
de red</w>
ang ed</w>
▁A fter</w>
bu k</w>
k▁e t</w>
partic ▁i
ev alu
tran s
▁en ce</w>
co▁n t
s al
Ch e
c ase</w>
es t▁i
▁e me▁nt</w>
s et</w>
a▁l ly</w>
&a▁ pos;</w>
f ore
▁S u
▁f act</w>
m▁ y</w>
s▁ ub
▁A n
Un ive▁r
s▁ ur
Gov▁ern ment</w>
▁a ir
an ▁a
▁po ssi
la s▁t</w>
d am
▁v arious</w>
▁f ood</w>
in es</w>
an g▁
M ▁o
ex am
y ▁ing</w>
ou▁ l</w>
h ar
▁s ur
▁k e
mon y</w>
▁w o▁r
▁l e
&apos; t</w>
p i
an ds</w>
w ▁o
ad s</w>
vi ties</w>
▁s in▁ce</w>
er ing</w>
r▁e e</w>
st at
ot s</w>
c ri▁
s ▁es</w>
i▁n g
es▁ s</w>
▁d e▁
▁P rov
i▁n gs</w>
a▁r g
r ▁e</w>
M ▁
men ▁ts</w>
▁s ome
u ti
port ant</w>
▁ul t</w>
ou ri
▁l oo
3 ▁
n ess</w>
ron t</w>
g a▁n
▁k n
w▁e re</w>
si dent</w>
con d▁uc
t e▁r</w>
1 1</w>
st a▁r
▁w r
▁dec i
is ed</w>
4 0</w>
c▁e ss</w>
ay ing</w>
c▁o me</w>
3 rd</w>
re▁l ated</w>
tr ac
b en
a▁ ti▁on</w>
u sic</w>
at s</w>
et c.</w>
ver y
t▁h is</w>
o▁ c
▁com e</w>
t▁ ation</w>
o ff</w>
da i</w>
▁l et</w>
▁o ft
estab li
▁mon th</w>
am es</w>
vi ol
a▁ tio▁ns</w>
C ▁en
tur ▁e</w>
a i▁r
ge▁n eral</w>
d on
a▁n ge</w>
▁C ity</w>
p▁ar t</w>
s ee</w>
v o
duc tion</w>
w a
k ▁ed</w>
e▁r ▁e</w>
▁s et</w>
in ted</w>
ch ange</w>
C ul
b ▁out</w>
s y▁st
la▁ r</w>
inv es▁t
o▁n al</w>
p e▁n
D ▁a
par tici
h old</w>
c ▁ed</w>
3 0
▁fol lowing</w>
t om
s ystem</w>
o▁ d</w>
op ▁en
m il▁i
ga me</w>
s▁ ch
▁g ive</w>
me▁mb ▁ers</w>
w i▁ng</w>
lo ws</w>
j ur
un der</w>
st▁ ar
▁h uman</w>
▁di rec
si der
empl o▁
ye a▁r</w>
&a▁ pos▁;t</w>
g i▁n
▁sal es</w>
wor ld</w>
vi s
in▁ gs</w>
c▁ y</w>
p▁ ro▁
o▁ g
i▁n ed</w>
▁me dia</w>
cul ▁tural</w>
J o
s sion</w>
pro sec▁u
w▁or k</w>
▁b e▁
ful l</w>
ti fic
e ve</w>
▁c u
▁s end</w>
nece▁ss a▁ry</w>
a▁ s
Ch o</w>
ul ts</w>
s▁t rial</w>
c▁h e
hel p</w>
ex c
▁m i
i▁c le</w>
▁Th at</w>
N▁a tional</w>
C oun
v i▁c
o▁n ly</w>
▁s k
at or</w>
th ern</w>
p▁er son</w>
a us▁e</w>
min i
ou ght</w>
ab li
▁u ni
pro du▁c
c▁ ri
▁b u▁t</w>
a▁r ou▁nd</w>
ss ing</w>
tri es</w>
ou g▁h</w>
l▁i on</w>
i▁ gn
cl ud
b et
▁c al
y un</w>
po li
pe ti
in sp
mi▁l li▁on</w>
S am
▁l abor</w>
▁&a pos;</w>
per son</w>
il▁ d
▁en tly</w>
g▁ lobal</w>
p▁e o▁ple</w>
▁p l▁a
resp on
amp ;</w>
s▁h ould</w>
l y
d ata</w>
▁st ar
b or
il s</w>
co▁mp any</w>
2 .
w a</w>
d▁i c
d ra
c ar</w>
i a</w>
lo se</w>
K▁ore a▁n</w>
he▁ ld</w>
acc o▁rd▁ing</w>
em e▁nt</w>
u▁ s</w>
p ply</w>
s▁t em</w>
st ud
qu e</w>
a▁l y
e ts</w>
i▁n ▁g</w>
s chool</w>
f ree</w>
▁m ov
▁P resident</w>
▁ n</w>
vi ▁e
gn am</w>
g ov▁ern
t▁ i▁on</w>
m a▁n</w>
l▁ ing</w>
de▁c i▁ded</w>
▁vi sit</w>
h om
t▁a t▁ion</w>
vir on
r▁a te</w>
v ▁ing</w>
su per
pro ve</w>
pro m▁
o▁ t</w>
Ko▁ re
ac ▁c
p on
L i▁
▁th▁e re</w>
▁p ic
▁b l
▁f a
anno▁un ▁ced</w>
u di
f uture</w>
e▁ on</w>
p▁ h</w>
com ▁e</w>
t ▁er</w>
s▁ y
a▁l so</w>
e▁ ven</w>
r▁e s▁
g un</w>
be▁c ause</w>
cu▁r rent</w>
con omic</w>
▁pl▁ ans</w>
p p▁
e ded</w>
p o</w>
1 8</w>
▁s ay</w>
v ▁o
Pro v▁ided</w>
▁rea son</w>
▁a r</w>
▁tim ▁e</w>
w e▁l
e▁ mb
off i▁ci
gr ad
ci dent</w>
ver al</w>
us ▁ed</w>
con f
ma▁ ll</w>
pe▁ ople</w>
as ▁e</w>
si▁ de</w>
le ge</w>
e▁ v
sh all</w>
ab l▁e</w>
▁pro ducts</w>
lo c▁a
▁p r▁i
f it</w>
20 ▁1
▁h ouse</w>
l ity</w>
ati▁ ve</w>
▁g iv
t ation</w>
pos ed</w>
s▁h ed</w>
c u▁
cl ▁e</w>
▁sh a▁ll</w>
▁b ack</w>
▁ f</w>
Gov▁ern ▁or</w>
in▁ k</w>
int en
H e
ou p</w>
d a</w>
▁“ “</w>
v ▁en
l ent</w>
▁f ul
ac ▁h
h▁a d</w>
▁B ut</w>
▁nec essary</w>
ati on
▁o ver
s▁ yst
o▁u gh</w>
li▁ ty</w>
e▁ ment</w>
at ure</w>
ma▁ y</w>
me▁ dical</w>
dom▁e stic</w>
▁a te</w>
se▁r vice</w>
empl ▁o
n til</w>
man ▁a
▁u ntil</w>
j▁ u</w>
su pp
▁mon ey</w>
▁hel p</w>
▁Tr ump</w>
h▁a lf</w>
Se p
pr▁o vide</w>
estab l▁i
H ▁e
s onal</w>
▁l eg
ow n
empl o
▁Ar ticle</w>
b ack</w>
t▁ ro
p▁o se</w>
ne w
es▁ s
ead qu
ar ds</w>
t▁i ve</w>
di str
▁a ff
oper ▁at▁ion</w>
an not</w>
S ▁u
k ey</w>
tech n▁o
▁s c
Sa▁m sung</w>
▁serv ice</w>
▁inv estig
ur ity</w>
cl ▁o
ver n
G e
sa▁ y</w>
wh e▁n</w>
▁th e▁
an▁ ge</w>
si dents</w>
acti v▁i
de f
t ▁ers</w>
si x</w>
s l
fac ▁t</w>
bi g</w>
▁K ore▁
Y ▁o
r ac
par a▁
Kore▁ a</w>
or row</w>
ea k</w>
ma▁t ters</w>
t e▁n
A u
al ▁i
ot o</w>
f▁e ss
th y</w>
p▁er ▁
S ▁a
reg ▁i
or ld</w>
int e
st▁ it
▁ent ▁er</w>
ac▁ h</w>
pl ay</w>
partic i▁
U▁n ited</w>
il ▁e</w>
D ▁
1 3</w>
▁i od</w>
▁s he</w>
v ely</w>
r▁ on
n u▁
im prov
mis sion</w>
U niver
▁A ft▁er</w>
su ff
sh ▁i
c e▁s</w>
o▁ ol</w>
ff ic</w>
▁h app
diff▁ic ▁ult</w>
ver ▁y</w>
gover n▁
ci r
20 0
Gover ▁n
l dn</w>
char ac
r▁ an
t op</w>
mun ic
a▁ ss
overn or</w>
D ong</w>
wh ic▁h</w>
r u▁
▁spec ial</w>
t o▁r</w>
▁S h
a▁n n
▁sa me</w>
ap▁ pl
H ong</w>
▁s el
r i</w>
lo t</w>
du al</w>
f▁or m
wo▁r k</w>
r▁o ugh</w>
h ▁er</w>
w▁i l▁l</w>
w a▁r
A ▁s</w>
ter ▁s</w>
n or
comp▁ani e▁s</w>
▁e st</w>
e f▁f
p▁ s</w>
do ▁es</w>
compl ▁e
▁re gi
k e▁t</w>
▁f ound</w>
st e▁r</w>
ke ts</w>
c a▁r
▁L et</w>
▁ear ch</w>
p▁or t</w>
si g▁n
▁st ock</w>
▁Ko▁ rea</w>
R e▁
vi ded</w>
p ay</w>
w▁ o</w>
t al
st an
ing ▁s</w>
il ding</w>
cor por
&a▁ p▁o
m▁ b
i fic
▁t e▁d</w>
▁e vent</w>
▁b el
s▁ up
z ▁ed</w>
▁w a
em p▁
or ▁i
1 6</w>
a▁c t</w>
n der
c am
envir on
▁h ome</w>
▁ ce</w>
ti▁ ve</w>
&a pos▁;</w>
▁a b▁out</w>
em ▁s</w>
el e▁c
F ▁
▁C ourt</w>
▁u nder
ex i▁
educ ▁ation</w>
ous ly</w>
d▁ in
s▁ ter</w>
li ght</w>
bi▁l li▁on</w>
▁t a▁
int ro
bro ad
▁ur ity</w>
▁c la
▁er i▁ng</w>
o o▁n</w>
pl ay
Prov ince</w>
▁Th en</w>
▁o ut
K ang</w>
n formation</w>
▁i nformation</w>
Metro po▁litan</w>
▁st udents</w>
tiz ens</w>
i▁n a</w>
c um
ye ong
p▁l an</w>
ar ing</w>
.▁ S
▁p o▁
n▁ o</w>
b s</w>
st ▁e
A m
on l▁y</w>
x peri
a▁ tion▁s</w>
vi▁ ce</w>
lo▁ c
ap pro
ad d▁i
Kore▁ an</w>
ici als</w>
ic ult</w>
i t▁y</w>
g▁ y</w>
h▁e re</w>
ren ts</w>
▁sa i▁d</w>
s▁i ty</w>
ss i▁on</w>
T V</w>
al y
b ur
i▁ zed</w>
▁t ▁o</w>
n ot
e▁ ri
o▁ k</w>
un ▁i
▁S am
g▁ i</w>
ar ▁e
ra p▁h</w>
lev el</w>
v in▁g</w>
emb ly</w>
▁th ▁er▁e</w>
in▁ st</w>
2 5</w>
w om
pa red</w>
▁P ro
ag ed</w>
▁pro ject</w>
pp ing</w>
.▁S .</w>
ot el</w>
▁re qu
H ▁e</w>
▁pro blem</w>
or▁ d
in ue</w>
wi th
ear ch</w>
me▁mb ers</w>
ag ain</w>
s▁ ti
sh ▁a
▁c ame</w>
y er</w>
n ter
▁i nter
b l▁e</w>
x pl
m▁o re</w>
ti v▁e</w>
mo▁ re</w>
si zed</w>
em e▁n
How▁e ver</w>
w▁a y</w>
sh i▁
▁M in
po▁int ▁ed</w>
Pro▁v ince</w>
in ese</w>
F or
e▁n ti
▁l ear
s▁tr ict</w>
J u
▁Par k</w>
▁t al
as▁ on</w>
oo▁ l</w>
I▁ f</w>
oo▁ k</w>
l▁i c</w>
be ing</w>
K▁ore▁ a</w>
▁p r▁o
▁con cer
ec ▁on
el fare</w>
b oth</w>
▁b as
Je ju</w>
Ad ministr
s▁a fety</w>
oc i▁
▁me eting</w>
d r▁a
ap po
struc tion</w>
9 th</w>
w at
tr al</w>
le s▁s</w>
&ap▁os▁; s</w>
▁Kore▁ a</w>
re am</w>
o▁ o</w>
▁i r
cl ear</w>
ar▁ ch</w>
e ds</w>
di▁ s
oc▁ ratic</w>
t e▁rs</w>
n ce</w>
Par ty</w>
or d</w>
w n
gen ce</w>
mi▁l lion</w>
re ase</w>
A ▁c
1 9</w>
▁m embers</w>
ic y</w>
ne▁ w</w>
h e▁r</w>
a▁c k</w>
w▁ith ▁in</w>
r▁e st</w>
inc▁ re▁ase</w>
▁@ ▁-@</w>
st▁ s</w>
▁expec ted</w>
s i</w>
▁c a▁
▁e xpl
b a
bo dy</w>
hi ef</w>
st e</w>
▁a round</w>
m u▁
administr ▁ative</w>
Gye o▁ng
pu▁r p▁ose</w>
d dle</w>
bl ems</w>
▁l ed</w>
G▁ yeonggi</w>
▁c o▁
anc ed</w>
ag ric
k e▁
r e▁n
partic▁u la▁r</w>
il d▁
al ed</w>
repres ent▁
cl ▁a
G w▁
ti on
p▁e ri
d ur
▁sh i
g ▁e</w>
e▁t c.</w>
b ile</w>
j e▁ct</w>
J ▁e
a u▁
s▁ h</w>
min ▁i
▁t r▁i
▁e xperi
▁ci vil</w>
comp a▁n
la▁ st</w>
Com m▁ittee</w>
▁l ev
th ree</w>
est a▁b
▁r oom</w>
▁g ot</w>
▁e mplo
p ay
oc al</w>
k now</w>
▁wh ether</w>
re▁ su▁l
ing le</w>
en ing</w>
W i▁th</w>
▁mat ters</w>
▁manag ement</w>
▁o ol</w>
k ly</w>
s e▁n
de l</w>
▁fe el</w>
co▁ me</w>
an ese</w>
o▁ u</w>
un e</w>
n▁ ot
as k</w>
▁wi thin</w>
ta x
oo ds</w>
in der
S e▁r
perfor ▁m
inv est
rien ds</w>
t o▁rs</w>
&ap▁os; ▁s</w>
▁we ek</w>
ti▁ c
▁S he</w>
con sul
herein ▁after</w>
cl es</w>
ev e▁n</w>
ob s</w>
l ate</w>
▁en▁ ded</w>
& amp;</w>
▁w o▁uld</w>
ab ▁i
▁m or
f▁i c
▁jo int</w>
a ft▁er</w>
pre h
im um</w>
c ▁u
▁C on
pa st</w>
▁t ech
ex pl▁a
▁mo vie</w>
s; m</w>
e▁ red</w>
che dul
▁e ven
v▁i ce</w>
▁r ate</w>
▁c ri
▁c ase</w>
co▁ ur
C hair
inc▁ l
▁r ul
par a▁g
E n▁
B u
t▁ ry</w>
il ed</w>
▁ba sic</w>
as h</w>
▁N ational</w>
J ▁
▁do es</w>
s▁ hi
para▁g rap▁h</w>
rec t</w>
N ov
del iber
i▁n t</w>
▁t oo</w>
6 0</w>
or i▁
dec ▁i
▁t ing</w>
▁fin d</w>
C e▁n
▁m usic</w>
▁c ases</w>
ach e▁d</w>
J▁a e</w>
con si▁
▁d ri
su▁ ppo▁rt</w>
▁c ity</w>
sh ▁ed</w>
partici p▁a
cer ▁e
ar ▁i
U .S
pres ▁i
ho sp
mil▁i tary</w>
▁be st</w>
j e▁c
ag rap
▁c ourt</w>
▁0 ,000</w>
vi▁ sit
ang es</w>
▁p ut</w>
ci t▁iz
0 s</w>
s oo</w>
Ord i▁n
In t
a▁n ts</w>
▁S o</w>
i▁ ons</w>
ic k</w>
tog ▁e
sp e▁
p en</w>
3 .
wh ile</w>
uc lear
r ade</w>
l▁e ad
▁a ble</w>
p ▁i
i▁ g
H i
m em
▁n t</w>
s yst
n u
i▁l l
▁20 0
s t▁i
d d
em ed</w>
el▁ l</w>
▁sh al▁l</w>
U .▁S.</w>
p▁ on
m ar▁
et e</w>
t▁ ri
m ale</w>
e▁n ds</w>
z e▁d</w>
la w
ma▁ de</w>
m ▁ental</w>
t ▁en
Pr▁o v
o h</w>
▁p op
wo▁r k
mot ion</w>
ac es</w>
v alu
in d
ho▁ w</w>
rec e▁
m al</w>
p tion</w>
▁ch ildren</w>
m e▁nts</w>
c▁ ri▁
bus in
c ▁es</w>
con sid
▁t ly</w>
di s▁a
di re▁c
Sh in</w>
r ▁ul
▁ch ange</w>
l led</w>
el s</w>
w i▁n
or ▁y</w>
a ke</w>
▁ ly</w>
hi gh
constru▁c tion</w>
th em
we ek</w>
▁d oc
y le</w>
man▁a g
o▁ on</w>
u res</w>
a▁ rea</w>
su▁ ch</w>
&apo▁ s;▁s</w>
f ▁e</w>
s▁e e</w>
me di
f▁ in
▁h e▁
▁F or
p▁er ▁iod</w>
st rial</w>
su ant</w>
ph one</w>
rec o
exec ▁u
H an</w>
F o▁
x ed</w>
an t
k e▁d</w>
i ▁es</w>
gover▁n me▁nt</w>
▁S ince</w>
▁pol ice</w>
com▁ pl
a▁ me</w>
ho▁ l
b ook</w>
▁t rade</w>
men t▁s</w>
t w▁o</w>
n st
▁fin al</w>
s ent</w>
h e▁l
s ci
▁oft en</w>
di es</w>
O r
&▁apo▁ s;s</w>
▁t i▁cle</w>
▁pro vide</w>
ap er</w>
Alt▁h ou▁gh</w>
▁ -▁@</w>
▁par ticip
t▁ ors</w>
si▁ ble</w>
rec e
▁to▁t al</w>
R ec
us es</w>
▁s en
▁coun try</w>
K ore
▁o ff</w>
▁l iv
wi de</w>
str ▁u
fu nd</w>
ur ch</w>
l arge</w>
ta▁ ke</w>
s▁ ystem</w>
par ty</w>
off ice</w>
exp ▁en
s▁tr ong</w>
@ ▁-▁@</w>
y oung</w>
J u▁
t▁e am</w>
n ▁i
▁r y</w>
o ds</w>
at e▁s</w>
▁th o▁se</w>
ec h</w>
it ing</w>
d▁u e</w>
o ols</w>
▁the▁ ir</w>
▁R e
b ri
▁cu stom
C o▁un
▁h ou
▁e men▁t</w>
tem per
in ▁ed</w>
compe ti
col l
ag▁a inst</w>
▁vi deo</w>
▁th ird</w>
▁c ar</w>
th r
li▁ c</w>
▁d ra
▁P rime</w>
f o
▁m an
c▁i ty</w>
c es
P r▁e
en cy</w>
v ic▁e</w>
ss e▁d</w>
man ufac
▁d a
y ▁p
jec ▁t</w>
gin al</w>
▁or ganiz
ore d</w>
▁wom en</w>
ann oun
▁20 1▁
st ▁ed</w>
o w▁
d v
al d</w>
▁o nce</w>
▁r u
b re
an ks</w>
Dem oc▁ratic</w>
o▁m en</w>
on es</w>
m em▁b
▁o wn</w>
t▁h ey</w>
▁g a
fir ▁st</w>
c ▁t
al ue</w>
Su▁ preme</w>
Gye onggi</w>
▁Jap an</w>
s▁h ow
o w▁n</w>
m en</w>
V ice</w>
1 4</w>
▁th ▁at</w>
▁b eli
me di▁
str ic
▁U S</w>
H ▁a
▁fam ily</w>
▁b ro
J i</w>
▁m ea
▁en t▁s</w>
▁p ay</w>
▁e ss</w>
us e
S ou
un ch</w>
tog ether</w>
c e▁d</w>
▁p ro▁
u k</w>
di d</w>
▁w a▁s</w>
co▁ l
Y oon</w>
▁ k</w>
pos▁i tion</w>
partic▁i p▁a
l▁o w</w>
hi▁ gh
fac e</w>
ti mes</w>
pl a▁n
▁possi ble</w>
t ute</w>
m o▁t
insti tu
in tro▁
ic an</w>
n▁e w</w>
or ga▁n
l ar
comp any</w>
commun ic
▁ann oun
r▁on t</w>
oo per
g▁ ro▁
ad ing</w>
▁p i
c ent</w>
▁i nst
or ity</w>
▁si gn
po▁r t</w>
c o</w>
t▁i l</w>
tr act</w>
p▁ rov
▁go▁ ing</w>
▁o cc
a▁t ing</w>
m portant</w>
▁f o▁r</w>
D is
l ▁ed</w>
str ▁a
4 ▁
s ang</w>
po wer</w>
cur r▁en
a▁t es</w>
s e▁d</w>
o▁ w</w>
0 th</w>
▁i n▁
ap pe
▁re f
wo▁r king</w>
B a
om s</w>
ma▁ ke</w>
int e▁r
▁e as
▁se ems</w>
▁c y</w>
po▁ sed</w>
vi sion</w>
m on</w>
▁pl▁a ce</w>
l▁i k▁e
S a
▁tim es</w>
▁i mportant</w>
ea son</w>
i▁ te</w>
▁m il
the▁ ir</w>
F ▁or
inform▁a tion</w>
t▁h e
comm ▁u
som e▁
di tional</w>
1 2
,0 0▁0</w>
▁d em
▁A ss
m▁a y</w>
nece▁ss ▁ary</w>
com panies</w>
▁w ent</w>
▁par t</w>
sa▁ ying</w>
igh ▁t</w>
d▁e m
h alf</w>
▁a reas</w>
n e▁c
em er▁
a▁ fter</w>
ov▁er ▁n
envir o▁n
s▁a yin▁g</w>
c our
o ice</w>
e▁ ven
▁diffe rent</w>
pr▁o c▁ess</w>
esti c</w>
p are</w>
ch▁a r
c tion</w>
▁stud y</w>
i▁ ze</w>
▁ti▁ ons</w>
S▁e oul</w>
5 ▁
▁me ans</w>
n a▁t
Hy ▁u
p ut</w>
eg u</w>
▁t ook</w>
m in</w>
i▁c s</w>
201 8</w>
le ft</w>
s mall</w>
l a▁rg
▁s econ
▁e ty</w>
li t▁y</w>
en▁ d
▁a use</w>
▁a mo▁ng</w>
▁off ice</w>
pro fes
p ic
in ▁e</w>
ag a
▁t ell</w>
Y oung</w>
r ▁y</w>
in ternat▁ional</w>
diff▁e rent</w>
ar m
hic le</w>
ch es</w>
ti c▁
stu▁ d
l ly</w>
▁hi gh
▁d et
exp a▁n
k ely</w>
K y
▁bec ome</w>
n in▁g</w>
R ▁
▁a l▁
J ong</w>
pl▁a y
A ▁t</w>
exi▁ sting</w>
sc re
▁st art</w>
l i▁ng</w>
K or▁e
C enter</w>
t ook</w>
d▁a te</w>
di stri
r▁es▁ ult</w>
it ary</w>
in ation</w>
O n</w>
Fin a▁ncial</w>
str ▁y</w>
lic ▁e</w>
ur ▁e</w>
G u
c ti
J u▁ng</w>
ore s</w>
b▁u s
D ▁ur
th rough</w>
1 7</w>
per ty</w>
ne ed</w>
Nor ▁th</w>
r ing</w>
com men
v e▁nt</w>
in i▁ng</w>
d r▁i
c▁h ange</w>
re s▁p
do or</w>
s▁ pec
st and</w>
po sition</w>
S o
B i
s w
u ation</w>
pa id</w>
e s▁t</w>
ren ▁t</w>
P▁o lice</w>
att▁ ache▁d</w>
w age</w>
t▁ ary</w>
r s</w>
▁ .</w>
av ▁er
1 3
▁f al
under ▁
at i▁ng</w>
tu res</w>
add▁i t▁ion</w>
▁En glish</w>
per ts</w>
par t</w>
▁t op</w>
P ▁u
1 8
▁h ard</w>
gr ap
st ar
be▁c aus▁e</w>
pos sib▁i
et t
E lectr
ro ss</w>
il ls</w>
clu de</w>
po▁ pul
for mer</w>
w ar</w>
B e▁c
bus iness</w>
▁t ru
▁t og
▁b ased</w>
uni ver
o▁ b
an ▁ts</w>
▁ern al</w>
y es</w>
ac▁ k</w>
2 4</w>
ati o▁n
ar e▁
g ot</w>
up s</w>
oc ▁i
j ud
J e▁
▁ r</w>
f▁am ily</w>
f ense</w>
eav y</w>
compe t▁i
ch ase</w>
▁pr ot
▁d own</w>
▁l ea▁
su▁r ance</w>
r un</w>
com ▁m
o▁ff ice</w>
▁wor king</w>
ou▁n g</w>
▁p ay
ca▁ ted</w>
iv er</w>
an a▁ly
▁st ate</w>
in▁ a</w>
C ur
▁le ft</w>
pa▁ ted</w>
▁Wh y</w>
r .</w>
o▁ m</w>
lo od</w>
a▁r di▁ng</w>
col le▁c
▁e s▁ted</w>
impo▁r t
comp▁an ies</w>
c e▁ss
Y ▁
v ▁ed</w>
Se o▁ul</w>
M ay</w>
▁&q▁u o▁t;</w>
t ely</w>
n▁a m</w>
g ue</w>
▁h old</w>
▁pro v
par ticip
deve▁ lo
▁e ducation</w>
▁b re
si▁ ons</w>
▁er in▁g</w>
pro▁ du▁c
M▁in ▁i
u ▁e</w>
pl a▁
ti ce</w>
m▁a r▁
s▁ on
pp ed</w>
i▁ ssu
is ing</w>
▁leg al</w>
▁Prov ince</w>
x pen
▁Wh ere</w>
&a▁ pos▁;
w▁i thin</w>
sh ow
b ir
▁jo b</w>
on ce</w>
iv ▁e</w>
c le</w>
A gr
L e▁e</w>
de▁ vel
A t</w>
oth ▁er</w>
acc or▁d
▁inv est
or gan
e ws</w>
▁pl an
i▁ als</w>
W ▁h
▁ye▁ ar</w>
op en</w>
m▁itt ▁ee</w>
ex i
at eg
T o</w>
tr ▁y</w>
su e</w>
ro l</w>
con di
i gn
f el
ed ly</w>
b ea
Alt▁h ough</w>
2 2</w>
fo▁r m
M anag
develo▁p m▁ent</w>
A ▁u
▁a pply</w>
u▁l t</w>
▁pro cess</w>
ful ly</w>
indu stry</w>
T ech
st a▁
s ▁ed</w>
t oday</w>
or k</w>
inc re▁as
&▁ap▁o s;s</w>
ic er</w>
govern ment</w>
c r▁i
c ra
▁m o▁
ren cy</w>
▁th e▁r▁e</w>
tre a▁t
Ch a▁ir
▁lo ve</w>
ram a</w>
▁sh ow</w>
d▁ y</w>
Ar ▁ti▁cle</w>
▁a dv
v ices</w>
pr▁o ject</w>
In ternat▁ional</w>
▁p a▁r
or d▁in
insti tu▁
▁th en</w>
x p
su▁b j▁ect</w>
e▁ nd</w>
▁a lon▁g</w>
ev ▁en</w>
P ol
▁t e▁r
ang u
po w
c▁ tion</w>
o▁ nd</w>
accor▁d anc▁e</w>
Y oo</w>
t▁ ter</w>
me▁e t▁ing</w>
tran spor
r ul
pl▁a n</w>
op i▁n
pos▁ si▁ble</w>
▁g ame</w>
▁C oun
s▁i de</w>
l▁a r</w>
k ▁i
▁di dn</w>
g ▁et</w>
g ro▁
o▁g ical</w>
l▁o c
▁O rd
tr i▁l
▁aga inst</w>
low ed</w>
▁ch ar
Ass ▁emb
ad dit▁ional</w>
▁ec t▁ed</w>
co▁m p▁
partic▁ip▁a te</w>
s ur▁
l ways</w>
t▁ it
te▁ am</w>
t a</w>
▁r et
tt ee</w>
t ter</w>
ss i▁
tur n</w>
tra dit▁ional</w>
pro▁ vi
s ked</w>
. 5</w>
▁per for
pub ▁
G o▁
atte▁n t▁ion</w>
▁n ever</w>
▁m o▁n
m embers</w>
dep e▁n
▁ch ild</w>
p▁er▁ son</w>
i re</w>
be fore</w>
wh ▁i
re▁su▁l ts</w>
a▁n ▁d</w>
est s</w>
res ol
h ouse</w>
O▁ff ▁ice</w>
Gye on▁g
o▁ th
the▁ m</w>
L ▁ee</w>
th▁e m</w>
s ical</w>
pos sible</w>
d▁i dn</w>
▁o ld</w>
▁b oo
▁: :</w>
i▁c t</w>
e ted</w>
▁i ssue</w>
▁e lec
in▁ d</w>
M▁a r
In du
▁S in▁ce</w>
C orpor
r▁ec ent</w>
pe▁rc ▁ent</w>
ou▁ p</w>
m e▁n
▁ ve</w>
li ve</w>
▁pur pose</w>
S ung</w>
n dustry</w>
de sig▁n
inv est▁i
▁i ndustry</w>
tri c</w>
in du▁
Hy▁u n
se par
w ater</w>
con tro▁
si▁ ty</w>
sign i
t or▁s</w>
N ▁or
s s▁
in nov
comm▁u n
▁i mpl
g ar
▁p lay
▁M oon</w>
w in▁g</w>
se on</w>
se ong</w>
su pport</w>
re▁g ular</w>
fol ▁
att ention</w>
▁f riend</w>
▁en joy</w>
t▁ wo</w>
▁c or
ar▁ k</w>
i▁d e▁nts</w>
in tern
▁f r▁ont</w>
▁c ou▁ld</w>
sec ond</w>
m▁o st</w>
l ue</w>
▁wi t▁h</w>
▁e xp
▁cl ass</w>
▁c o▁n
resp on▁
b▁e fore</w>
▁e xpen
z ing</w>
po licy</w>
▁ re
pro d▁uc
es t▁
uclear iz
▁ne w
ur ant</w>
t on</w>
▁th ings</w>
Prov ▁ince</w>
par t▁
d ▁en
▁ph one</w>
▁c ap
b ou▁t</w>
fo▁r m</w>
n ame</w>
▁s ent</w>
n tro
▁i ntro
gh ter</w>
a▁ ch
c ing</w>
▁the i▁r</w>
▁Ch inese</w>
i▁l ed</w>
▁t om
ta k▁e</w>
s mar
di sp
G▁ u</w>
▁d eli
o▁ me</w>
, ▁0
▁me et</w>
ca▁ p
J ang</w>
H an
▁oper ation</w>
em ▁ent</w>
▁secon d</w>
▁L iber
In tern
t▁ al
▁n ame</w>
perfor m▁
▁b ook</w>
▁L and</w>
▁de sign
▁a lways</w>
Ch ung
ac t▁ively</w>
▁da ily</w>
i▁c es</w>
▁re sidents</w>
st▁ ry</w>
oti on</w>
m▁it▁ tee</w>
mini s▁tr
ch▁ ang
M ▁e
u ght</w>
su▁ m
sh ow</w>
neg oti
pre s▁
ab ility</w>
A ▁r
u▁n i
exhi b▁i
C EO</w>
D ae</w>
▁n ight</w>
▁l im
e▁n s</w>
▁res pon
ur y</w>
w ed</w>
partici▁ pa▁ted</w>
h▁e alth</w>
ma j
f ri
v e▁d</w>
p▁o licy</w>
gover▁n men▁t</w>
en ed</w>
N ▁
▁con fir
l low</w>
fam ily</w>
inc ▁i
op s</w>
▁le▁ vel</w>
min al</w>
▁w ▁h
v▁i s
or ies</w>
▁incre ase</w>
s ent
pro sec
pe o▁ple</w>
▁m ust</w>
Y ▁e
▁pr▁i ce</w>
s▁y s▁tem</w>
o▁ff ▁ice</w>
r▁e a</w>
d ministr
▁In cheon</w>
em ent
or der</w>
Y ang</w>
p uty</w>
t▁ an</w>
in ▁u
comm i
cri be</w>
ol ▁d</w>
ar ly</w>
▁i ssu
i den
ag o</w>
o▁r ts</w>
es ▁e</w>
▁Th ese</w>
li▁ sh</w>
g▁ n</w>
bu s</w>
ati on▁al</w>
▁re ally</w>
re▁ ss</w>
1▁ 0</w>
re la
▁tog ether</w>
▁t ▁h
▁sh ort</w>
▁3 0</w>
sh ment</w>
hel ▁d</w>
gg est</w>
c lo
con cen
ec tion</w>
▁m e▁
▁l i▁
▁s or
l▁ ine</w>
d ri
▁” ”</w>
▁d ata</w>
▁Ord inance</w>
r▁ d
i▁n k</w>
Li▁ ber
▁pri vate</w>
prom▁ ot
n f
h ear
ev e▁r
T ▁a
r▁e as▁on</w>
pen ed</w>
ma k
for ▁m
d ro
por t▁
or ▁e</w>
e▁c t▁ion</w>
com▁p a▁red</w>
so cial</w>
so ci
re v▁i
lo▁ w</w>
wh ▁at</w>
f▁i ed</w>
to▁ ur
ta in
mp ;</w>
chi▁l d
▁ye▁ ars</w>
▁wh i▁le</w>
stu▁ den▁ts</w>
g▁ o</w>
d e▁r
▁p ass
▁fore ign</w>
s in▁g</w>
7 0</w>
comp▁ani ▁es</w>
est ed</w>
P e
a way</w>
▁G w
▁st ore</w>
pres ent
o ber</w>
den tial</w>
In▁ cheon</w>
de pen
▁W orld</w>
ot▁ her</w>
off▁ic ▁ial</w>
P h
oun ▁g</w>
con ▁cer
▁p ast</w>
y n
ll ▁ed</w>
C i▁ty</w>
2 1</w>
pre▁ vious</w>
▁h av
▁c le
p▁o li▁
for t
c i▁ty</w>
en ti
H o
y m▁ent</w>
il t</w>
bus▁ in
ust▁ om
▁2 0</w>
ec ▁
wor▁ k</w>
comm i▁
agrap h</w>
▁j ud
b▁e come</w>
wh y</w>
pa ss
on ic</w>
H ▁o
▁fi eld</w>
j i</w>
at▁i o▁n</w>
hair man</w>
▁Sam sung</w>
clu ded</w>
f oc
d▁o wn</w>
coun try</w>
ap p▁e
▁H y
How▁e v▁er</w>
▁l ook</w>
ev ent</w>
o▁ ri
w oo</w>
1 5
▁p ress</w>
pri l</w>
ch e▁on</w>
sh ▁
poli▁ tical</w>
O h</w>
ex ▁t</w>
&▁a pos▁;s</w>
▁lev el</w>
re spec
m e▁d</w>
G overn
▁re port</w>
k n▁ow</w>
▁i s▁
l arg
S p▁e
M ar
▁f riends</w>
▁s u▁
me dium</w>
▁f oc
▁c ause</w>
v ac
pro v▁i
tt le</w>
▁s im
sp ort</w>
re vi
▁ ll</w>
c▁h a▁nge</w>
aliz ed</w>
C o▁
j ong</w>
f ess
ati v▁e</w>
el l
c▁o m▁
le y</w>
gi ve</w>
em ▁en
▁est abli
sf er</w>
p al</w>
exp r▁e
su mer</w>
S ong</w>
▁happ y</w>
p▁ la
al▁ ready</w>
F e
pp ▁ort</w>
des ▁i
at ur
an y
pr i▁
re sted</w>
h ard</w>
coo p▁er
▁A sian</w>
sh ▁e</w>
re▁ s
o st</w>
govern m▁ent</w>
ap e</w>
N e▁w</w>
▁f ront</w>
m▁a ke</w>
f av
f▁or m</w>
▁O ff
▁w ar
▁pl ay</w>
nece▁ss ary</w>
m o▁r
et ting</w>
en g
b▁a ck</w>
▁in c▁e</w>
▁b ud
Educ ▁ation</w>
w in</w>
re v▁e
▁Min istry</w>
s am▁e</w>
&▁ q▁uot;</w>
re s▁t</w>
m ple</w>
o il</w>
i ssu
a ined</w>
g▁ re
ast e</w>
0 0
ver sy</w>
o es</w>
g e▁t</w>
fe s▁
rea▁ se</w>
▁a bou▁t</w>
s a▁n</w>
at ment</w>
▁G overnor</w>
▁A re</w>
y et</w>
i e▁s</w>
c ement</w>
▁m illion</w>
▁& ▁
th er
lea s▁e</w>
h ea▁
c anc
re l▁a
m▁e mber</w>
w th</w>
ra in</w>
f ar</w>
Se o</w>
▁h ours</w>
ec ted</w>
D evel
fe w</w>
lo ok</w>
am ▁
niver sity</w>
h▁o w</w>
▁li ve</w>
▁&a pos▁;s</w>
a▁ id</w>
ini on</w>
m▁i t</w>
B ▁e
▁a lly</w>
ul ▁d</w>
l an▁
fil m</w>
1▁ 9
lo▁ ca▁ted</w>
▁a sked</w>
A▁c t</w>
▁c ou
indu s▁trial</w>
sul a</w>
du▁ ce</w>
▁M ay</w>
l e▁d</w>
je on</w>
com m▁ittee</w>
▁e ms</w>
s u</w>
ri ▁ed</w>
at mo
▁s um
▁p la
Ch▁in a</w>
tr a▁n
sti tute</w>
m age</w>
Jap an</w>
▁att ached</w>
establi s▁h
ol o▁gical</w>
rep▁or te▁d</w>
con ce▁r
F eb
D▁ur i▁ng</w>
▁la w</w>
m a</w>
In fra
▁f loor</w>
▁O ne</w>
c ▁ul
▁l it
▁ur ban</w>
pr▁o j▁ect</w>
E ven</w>
2 00</w>
s▁e x
k no▁w</w>
ar▁ ds</w>
t▁ ic▁
e re
an▁ other</w>
▁s oon</w>
ove▁r n
off▁i cia▁l</w>
a▁ st</w>
s or
an▁ n
ver ti
al ▁th</w>
s oon</w>
we▁l fare</w>
perfor ▁
ot te</w>
l o▁ng</w>
es ses</w>
ec ts</w>
P▁u blic</w>
A c
▁s ch
▁Wh ile</w>
ur s</w>
m▁en ▁t</w>
res ▁earch</w>
re et</w>
be▁ li
a▁ir s</w>
h ▁u
b le▁
st reng
▁ta x
▁May or</w>
str u
▁per i
s▁t ri
mb e▁r</w>
exam in
cont inu
con di▁
b ▁er
ati o▁ns</w>
acc ▁i
s ex
▁e re</w>
me ans</w>
m etro
ch a▁ng
8 0</w>
▁Com mittee</w>
m emb
in▁e ss</w>
agric ul
▁P e
▁ca▁ ses</w>
h ee</w>
S outh</w>
u ro
ove▁r seas</w>
th od</w>
s a</w>
e▁n cy</w>
a▁n c▁e</w>
▁E x
t an</w>
F ▁or</w>
t▁er m</w>
su al</w>
stru▁c tu▁re</w>
fe el</w>
ar▁ ge</w>
rep▁or ▁ted</w>
a▁ gen
expl▁a ine▁d</w>
4 .
w▁ i▁ll</w>
wo▁r ld</w>
t ent</w>
e▁n g
ad em
B ▁a
spec ▁i
d on</w>
▁S a
wh▁e th▁er</w>
fin d</w>
c ard</w>
▁Tr ade</w>
h▁a rd</w>
at tr
pro vi▁
pl ac
gu st</w>
▁po int</w>
s▁i te</w>
l ready</w>
er day</w>
ru g</w>
esti val</w>
▁w rit
▁o ri
▁1 ,
cen ter</w>
con f▁ir
str ict</w>
▁appl ic
ic on
er ci
▁doc u
F ac
li k▁e</w>
g e▁
b l▁e
st▁ ud
il▁ l
con omy</w>
s▁h oul▁d</w>
c ust▁om
▁pl ans</w>
Ass oci▁
6 ▁
▁fin ancial</w>
c o▁r
bel ▁i
in▁ s</w>
gr ams</w>
Se▁ oul</w>
▁e a▁r
f r▁i
e▁ ong</w>
sur ance</w>
▁il ity</w>
hi g▁h</w>
di▁ ff
▁ma kes</w>
▁Y e
ssi ve</w>
re▁ sul
lit a▁n</w>
P en
▁a lready</w>
re▁ n</w>
o .</w>
g in</w>
emen ts</w>
at▁i ona▁l</w>
5 00</w>
▁f uture</w>
▁v i▁
▁v e
▁d es
pre sid
we e▁n</w>
d▁a ys</w>
1 th</w>
ind▁u stry</w>
C O</w>
▁ta x</w>
E▁ ven</w>
r▁o up</w>
commi ss▁i
co st</w>
ver s</w>
qu ar
▁an y
pl o
f r
s an
exp en
gr oup</w>
ar▁e a</w>
ord in
▁c enter</w>
comm it
cir cum
a u</w>
para▁ gr
l i▁ne</w>
impl emen
▁fir ▁st</w>
se▁ veral</w>
m▁e mb▁er</w>
manag ▁em▁ent</w>
d o▁ng</w>
▁t est</w>
t el
em p
a▁n k</w>
i▁ li
2 3</w>
s▁hi p</w>
op ▁e</w>
ha i▁r
at ▁e
▁sp ace</w>
po or</w>
i▁n u
L a
rec▁e iv
ec ▁h
g ent</w>
d u▁r
u▁ ght</w>
t▁ ute</w>
s▁ sed</w>
c a▁n
▁G ang
ter min
b▁e ▁
B C</w>
▁ti▁ me</w>
▁i ed</w>
▁a p▁
w▁h at</w>
su n</w>
l▁ and</w>
▁s cen
f i▁r
t o
▁u r▁
in▁ clu▁
▁a uth
re sta
a▁ bout</w>
ac hi
Hi gh</w>
tic▁ le</w>
perfor▁m a▁nce</w>
n▁a me</w>
A f▁f
j ▁e
s▁en ior</w>
s ong</w>
co▁ mpl
J ▁o
G ▁a
o▁ my</w>
▁s mar
▁a ted</w>
wi▁ th
st o▁
hy un</w>
f i▁c
shi▁ p</w>
al t▁h
si t▁y</w>
p▁ le</w>
off ic▁i
▁fi re</w>
l der</w>
di an</w>
der ly</w>
K▁ore▁ an</w>
▁bu y</w>
en t▁r
dis ab
Hy▁un dai</w>
▁r i
de sign
B S</w>
▁&apo▁ s;s</w>
a▁r ound</w>
men tal</w>
f a▁l
▁so cial</w>
&a▁po▁ s;t</w>
▁bet ter</w>
re po▁r
h a</w>
▁diff icult</w>
i▁ ver
en ded</w>
b▁ lem</w>
ag▁a in▁st</w>
c▁a lled</w>
a▁p h</w>
&ap▁os; l▁l</w>
a▁l es</w>
B usan</w>
▁bo dy</w>
i▁ st
ci pl
as si
▁s er
Kore a▁n</w>
▁i ▁s</w>
partic▁u l▁ar</w>
Li▁ber ty</w>
s ince</w>
i st</w>
J in</w>
▁wor ▁
▁c are</w>
u t▁
▁h ar
s▁a n</w>
al ▁iz
fac ili▁
▁h alf</w>
y▁e ars</w>
sec ▁urity</w>
exp▁ec te▁d</w>
c ess
f air</w>
▁rece ive</w>
lo g
in▁ cluding</w>
▁bi g</w>
p▁a id</w>
lo▁w ed</w>
i▁ fy</w>
t▁h ▁e</w>
in▁ g
ab ly</w>
stu▁ dents</w>
resi dents</w>
ce pt</w>
an▁ ces</w>
▁st a
v est
o▁r th</w>
m id</w>
F i▁n
iv ▁er
f lic
in▁ t</w>
ti▁ l</w>
pr ▁ot
du▁c t▁ion</w>
▁i ▁t</w>
y me▁nt</w>
▁s ite</w>
▁s even</w>
▁rece ived</w>
sh▁i p</w>
pos al</w>
k inder
o▁ ver</w>
cond▁uc ▁ted</w>
a v▁e</w>
▁A mong</w>
f a▁r
▁year ▁s</w>
in st▁
d it
con sider
▁ch arge</w>
su▁ res</w>
m▁e m▁ber</w>
as ▁ed</w>
Dem ▁o
0 .
op pos▁ition</w>
c a▁l
&▁apos; t</w>
st r▁e
s er</w>
auth or▁i
▁c annot</w>
r o</w>
per ly</w>
o d
n tern
▁i ntern
f▁u l</w>
diff e
u dit</w>
loc k</w>
in su▁rance</w>
T▁h at</w>
▁J ung</w>
P l
▁A nd</w>
in▁t e▁nds</w>
e▁ se</w>
n ten
emer▁ gency</w>
do▁ wn</w>
ad▁ v
▁s uc
▁i nten
How▁e ve▁r</w>
20 1▁
&a▁p▁o s;s</w>
w▁or ▁
l▁e ss</w>
ar ti
i▁ ly</w>
e▁n ed</w>
A▁ ss
▁a cti
J a▁n
c rit
b ased</w>
▁sit uation</w>
▁o the▁r</w>
▁a gre
e▁ k</w>
eme▁n tary</w>
▁n ot
▁w i▁ll</w>
in come</w>
en ▁ts</w>
doc u▁
De par▁t
sch e▁
e▁ ly</w>
emp▁ lo
C▁en ter</w>
A ▁n
s▁o me</w>
com preh
sp e
h ind</w>
b r▁o
▁st at
▁ec te▁d</w>
O c▁t
B us
▁p la▁
por ▁ts</w>
o▁ ff</w>
c▁e ment</w>
su ppl
oper ▁a
Gyeo▁ng gi</w>
▁J ae</w>
pro▁ ve</w>
d ay▁s</w>
s▁ y</w>
m ount</w>
f ▁t</w>
ce ed</w>
p▁ lay
f▁ f</w>
rec ru
re tary</w>
▁sh are</w>
▁s inc▁e</w>
b oo
T ae</w>
▁S ome</w>
t a▁l
r▁e port</w>
l e▁s</w>
m prov
tiv es</w>
t r▁e
sta▁n ding</w>
chedul e</w>
in spec
e at</w>
c▁a me</w>
s▁ k
gover▁n m▁ent</w>
M in</w>
▁e at</w>
c ent
s▁ ul
gi es</w>
G o
▁r is
re▁ gi
▁P a▁r
cer ti
▁a mount</w>
p at▁i
ve▁r y</w>
ir ▁
gen ▁er
er a</w>
de a</w>
c▁ri▁ bed</w>
v ▁
pr ice</w>
a▁ ti
ma▁n ag
n t▁il</w>
▁u nt▁il</w>
aut om
st an▁d
d▁ ge</w>
su b▁
7 ▁
▁L ocal</w>
t▁e e</w>
c▁o mp
▁ke ep</w>
▁devel opment</w>
ex ▁a
d a▁te</w>
A hn</w>
▁d am
s▁econ ▁d</w>
J▁a p
▁s ma▁ll</w>
pe an</w>
del ▁i
comp▁an ▁ies</w>
r▁e p▁ort</w>
develo▁p ment</w>
▁en viron
s al</w>
invest▁i g
ex ▁c
tro l</w>
st e▁d</w>
9 ▁
▁i t
▁e s
▁e a
▁e f
▁a i
▁o v
▁e v
▁o u
▁a s
▁a g
▁perfor mance</w>
▁hear d</w>
▁&apos; ▁s</w>
su gg
li er</w>
il ▁y</w>
du st</w>
L ▁
6 .
▁tom orrow</w>
off icial</w>
m us
par ▁
di▁ sc
D ▁on
v it
▁d om
r up
cor p▁or
sh ould</w>
▁experi ence</w>
m ust</w>
ho▁ using</w>
tech nol
me eting</w>
te red</w>
G y▁e
l▁a ck</w>
pro ject</w>
m ad▁e</w>
indi v▁i
an ted</w>
▁d ate</w>
b and</w>
ea▁r s</w>
Ass oci
▁en d▁ed</w>
peri od</w>
e ar▁
ac qu
▁th in▁k</w>
th ▁en</w>
di v▁i
▁peri od</w>
s▁yst ▁em</w>
re▁ a</w>
int▁e r▁est</w>
N o</w>
▁e ▁d</w>
▁announ ced</w>
p▁ o▁
l ▁es</w>
s▁e l
s▁ c
re▁ f
ma il</w>
et▁ c.</w>
c▁h an▁ge</w>
sh es</w>
ill age</w>
▁en s</w>
per s▁on
m▁ar▁ ket</w>
au di
▁St ate</w>
o▁n ed</w>
lo▁ ok
f ans</w>
e▁n sive</w>
emen ▁t</w>
▁Ch e
pres s</w>
h ood</w>
▁&ap▁o s;s</w>
pre par
para▁gr a▁ph</w>
ap ar▁t
▁b us</w>
wor k
po lice</w>
ap ar
H ▁an
lo ve</w>
c▁en ▁ter</w>
si b▁le</w>
o s▁e</w>
me an
b il
a▁r t</w>
▁g ro
c▁h a▁irm▁an</w>
C▁h ina</w>
h▁e l
▁m a▁
pre ve▁n
im pr▁o
▁N ew</w>
r un
▁b ea
la▁rg est</w>
g a▁r
▁c our
a▁ v
▁sh ▁a
▁pro vi
rec ▁ently</w>
Tr an▁
▁th ought</w>
lin ▁e</w>
addi▁ tion</w>
▁c lo
sp ital</w>
ap po▁
▁deci ded</w>
exec▁u tive</w>
▁i mp
▁H an
w▁ ing</w>
s land</w>
ot▁ h
z a</w>
C ▁ity</w>
t t▁
le a▁r
a▁ ff
▁i ence</w>
fic ation</w>
f ine</w>
ou▁ se</w>
l▁ik▁e ly</w>
bu dget</w>
a▁t t
▁re al</w>
▁&qu o▁t▁;</w>
igh ts</w>
st ate</w>
▁an aly
▁c am
li z
c▁i l</w>
ch▁ an▁g
C o▁n
t▁i on▁s</w>
K▁ RW</w>
▁H ouse</w>
▁b ur
ol ▁
g▁ g
gr ound</w>
D ong
so▁ ci
pro ducts</w>
al thy</w>
us h</w>
qu es▁
p▁a y</w>
f▁a c
com pen
3 ▁0</w>
t ou▁
k y
d▁i r▁ec
E▁ x
▁f o▁und</w>
m ate</w>
w▁a r
w▁h ere</w>
mun ity</w>
g▁ an
▁ma in</w>
▁Jap anese</w>
ta i▁n
ex a▁m
sh e▁d</w>
r▁ d</w>
ju▁ st</w>
tr a</w>
gin e
f▁ir st</w>
2 7</w>
tr ▁i
m▁a king</w>
h ot</w>
re▁ce ive</w>
pr▁e vent</w>
▁n ing</w>
▁rev i
serv ice</w>
are as</w>
3 1</w>
sy▁st em</w>
Prov i▁ncial</w>
Am e▁r
r▁a the▁r</w>
mea▁ sur
au d▁i
P ro▁
sh a▁ll</w>
▁a sk</w>
st▁r uc
n ers</w>
g i▁
ch er</w>
ild▁ ren</w>
▁an other</w>
e▁ ar
der n</w>
ch il▁d
T ▁e
▁t ea
▁do ing</w>
sub s▁i
▁si de</w>
▁c es</w>
h eadqu
c▁a r
Pa▁r k</w>
res i▁de▁nts</w>
n▁u mber</w>
n ear</w>
k i</w>
c▁en ter</w>
3 00</w>
▁st e
e▁c k</w>
b ut
ati s
A c▁t</w>
▁k n▁o
▁i nf
y ers</w>
tr u
r▁ ing</w>
mo ve</w>
ho s▁p
▁in k</w>
su p
f u▁r
a red</w>
▁s le
▁investig ation</w>
pa▁ yment</w>
a i
w r
ce▁ ss</w>
bus i▁n
a▁ ch</w>
at ory</w>
▁e very
hi▁ gh</w>
d ▁er
▁pro sec
inves▁t ment</w>
▁l ow</w>
t▁h ere</w>
re▁qu e▁st</w>
erv ice</w>
ini ster</w>
a i▁l
s ay</w>
pe▁ ri
our ces</w>
den ucleariz
A n▁
ju s▁t</w>
in king</w>
af▁f airs</w>
S on</w>
▁ph oto</w>
in▁ ing</w>
▁t ▁
sec r▁e
mo▁n y</w>
▁a d</w>
g re▁
c ast</w>
c▁ lo
an tly</w>
▁t en
pos▁i t▁ion</w>
ma i▁n
p▁u b
s▁ex ual</w>
Hy un</w>
t▁r ac
es n</w>
c e▁nt
N am</w>
▁a way</w>
ta▁ in</w>
profes s▁i
ma k▁e</w>
com p▁e
w ant</w>
me▁e ting</w>
insti t▁u
d ▁ec
▁reg ul
lu b</w>
conven i
Int ▁ern
un ive▁r
r ice</w>
In d▁u
▁fac ilities</w>
▁K RW</w>
y ou▁r</w>
b u</w>
▁r un</w>
▁char ac
i▁ ved</w>
compa▁n ies</w>
U ni
Sep t▁e
Min▁i st▁er</w>
▁W a</w>
ur t</w>
su c▁h</w>
ro▁ ugh</w>
ren tly</w>
me e▁t
che o▁n</w>
Se ung</w>
he▁l p</w>
mi s▁
ing er</w>
▁u ng</w>
or ding</w>
r▁e gi
l et</w>
gi c</w>
▁spec i
▁e k</w>
▁d ev
t▁ age</w>
o▁ use</w>
b t</w>
Da ▁e
t l▁y</w>
m yeon</w>
er▁ n</w>
▁G roup</w>
se arch</w>
S ▁h
,▁0 00</w>
▁re qui
x am
ma▁r ket</w>
s ang
po p</w>
ong er</w>
O S
v▁i ew</w>
la▁ w
fin ▁e</w>
bus in▁e
▁o pen</w>
i▁ od</w>
e▁nt l▁y</w>
p u
ha e</w>
di vi
depar▁t ment</w>
a▁ ve</w>
int▁e rest</w>
devel ▁o
an t▁s</w>
▁co st</w>
Ch a▁irm▁an</w>
w ould</w>
st ries</w>
st e
il▁ legal</w>
ac her</w>
▁e xam
tr ▁u
p▁o l▁i
n e▁d</w>
P▁ar k</w>
▁for mer</w>
war ds</w>
n ex▁t</w>
M y</w>
▁n ed</w>
ne ws</w>
mit ted</w>
i▁n ue</w>
g rowth</w>
dr▁e n</w>
distri b▁u
▁c oul▁d</w>
t▁ t
pro cess</w>
po▁pul ar</w>
l▁a r
anc ▁es</w>
j ▁in</w>
aliz e</w>
in ▁ted</w>
▁f ree</w>
w it
n ▁or
d▁ur ing</w>
▁0 ,0▁00</w>
per▁ sonal</w>
n ▁ed</w>
Com ▁m
r an</w>
p▁ ric
pres c▁ri▁bed</w>
ve h▁i
for m▁a
▁P ol
m▁on th</w>
l▁i ving</w>
d▁ le</w>
bu m</w>
a▁c tual</w>
▁wh ole</w>
▁lea st</w>
▁ tion</w>
ad ▁i
5 .
si▁ te</w>
res p▁on
me et</w>
ch a▁ir
Prov in▁ce</w>
▁res ults</w>
▁re ported</w>
y ong</w>
wh a▁t</w>
poli t▁an</w>
▁dis c
w ea
vol un
pro duc
m▁ any</w>
g ▁e
f l▁o
acc i▁
s; ▁t</w>
om men
lan▁ gu
l et
l abor</w>
▁M ar
nu▁ clear</w>
ma in
e▁ vent</w>
Y▁o u</w>
h app
an ti</w>
▁J o
m e▁s</w>
g▁ ned</w>
▁C enter</w>
wh e▁re</w>
en d
R u▁
▁ret ur
p▁ la▁
5 0
temper ▁a
▁n am
ye e</w>
Di r▁ec
▁cl ear</w>
st i▁ng</w>
prosec▁u tion</w>
or ing</w>
int el
o▁r d▁
e▁n se</w>
en c▁e</w>
y▁e ar▁s</w>
u tive</w>
oth ers</w>
i▁ red</w>
d re
a▁c tive</w>
v ▁es</w>
s▁i gn
b o</w>
ab o▁ut</w>
N ational</w>
u d</w>
u ary</w>
m i</w>
inc▁l ud
T h▁e
▁cont inu
off i▁c
f a▁m
u▁ te</w>
&▁apos; ▁s</w>
▁com peti
tr an▁
ti g
il▁ lion</w>
cl a▁
J une</w>
▁t o
pr ▁a
f ast</w>
at ly</w>
▁Wh e▁re</w>
h on
charac ter
S ome</w>
▁l ater</w>
t▁ al</w>
s ation</w>
d▁ ly</w>
br ary</w>
▁ne g
▁l arg
k ▁in
b it</w>
tr▁a c
li day</w>
at ors</w>
su it</w>
par ti▁
▁s pe
▁cur rent</w>
t a▁ry</w>
eri als</w>
ea sed</w>
dec ▁
bu tion</w>
al▁ l
M a
p▁ lease</w>
p i▁c
Ko▁re an</w>
p▁ re▁
as e▁d</w>
D▁on ald</w>
▁e f</w>
▁F i▁rst</w>
g▁ ing</w>
tern oon</w>
te a▁m</w>
op ed</w>
ac y</w>
▁e sti
ri se</w>
en ces</w>
duc ted</w>
c ame</w>
▁e mp
▁cul ture</w>
B y</w>
s▁ u▁
L ast</w>
s▁o on</w>
e▁x t</w>
bu dg
Com mittee</w>
op port▁
j ▁ec
S er▁
▁y outh</w>
▁con di
▁H wang</w>
m▁o bile</w>
▁o ▁f</w>
▁gen eral</w>
fo▁ l
am ong</w>
oper ▁ating</w>
entr al</w>
▁h u
g en</w>
▁w ea
▁me dical</w>
pres ent▁
del i
ch ain</w>
▁wh ▁i
fe rence</w>
cul ture</w>
▁v ol
d▁ ro
bu y</w>
i▁c ally</w>
f er</w>
Unive▁r sity</w>
G e▁n
per f▁or
in ner</w>
for ▁e</w>
angu age</w>
rec▁e ived</w>
ati▁ ons</w>
Pro▁v inc▁e</w>
▁a▁ nd</w>
pre ad</w>
tic ul
me▁mb e▁rs</w>
▁b ir
b ▁or
▁c lose</w>
▁C ould</w>
c ou▁
▁wh ose</w>
p m</w>
i▁c ul
ir l</w>
a▁m s</w>
Gw▁ angju</w>
E ur
▁wh er▁e</w>
▁lear n</w>
b ack
& am
▁y ea▁rs</w>
▁lea ve</w>
f▁e male</w>
ev ant</w>
i▁ gn</w>
▁m us
str▁u c
e▁ s
L ▁i
▁ma king</w>
e ac▁h</w>
▁h om
▁b o▁
wh▁e t▁her</w>
ne y</w>
▁cal led</w>
▁ ti
na▁t ural</w>
co▁mp an
▁requ est</w>
s▁a i▁d</w>
m▁ p</w>
hi▁ m</w>
e▁ ting</w>
ch i</w>
O r▁d
x t</w>
se ok</w>
our n
ai▁r s</w>
Infra stru▁ctu▁re</w>
▁lit tle</w>
sur ▁e</w>
si on
l▁ead ▁er</w>
▁a dministr
spe▁ ci
fam ▁ili
r ri
pl ex</w>
▁tri p</w>
▁ ding</w>
l▁o ok</w>
le▁ g
i▁t al</w>
im al</w>
▁pur suant</w>
▁r i▁ght</w>
▁p ub
▁/ /</w>
vi o▁l
r▁o le</w>
investig ▁ation</w>
ce▁r tain</w>
M ▁u
▁te▁r ms</w>
pr▁o b▁lem</w>
a▁p an</w>
▁ta kes</w>
oo t</w>
im medi▁
Ju ly</w>
B u▁
▁th ing</w>
com pan
ou▁n t</w>
▁en ded</w>
re▁ ad
j obs</w>
▁s elec
▁L otte</w>
u▁ res</w>
mon ey</w>
em ph
du▁c ed</w>
S K</w>
st ance</w>
incr▁e ased</w>
go ing</w>
▁a s</w>
p ot
mea▁ su▁res</w>
lec ted</w>
7 .
m ▁or
ac t▁i
manag ement</w>
▁Th er▁e</w>
▁A c
exc e▁l
coun ▁tri
Ar ▁ti▁
o▁ ld</w>
depar▁t m▁ent</w>
Kor▁e an</w>
ssi o▁n</w>
par ag
▁S up
vi▁e w</w>
im s</w>
b ad</w>
▁f oun▁d</w>
reg▁i onal</w>
g iv
e▁n tly</w>
entr ▁u
ear ly</w>
c▁a u▁sed</w>
cl ass</w>
Off ice</w>
at▁i ve</w>
L im</w>
▁B us
vi c</w>
p▁l ac
ch ec
T ran
P o▁
tr av
ce▁ pt</w>
si bility</w>
dec i
&a pos▁;
un ity</w>
sc ale</w>
at▁i on▁s</w>
S o</w>
1 4
▁some thing</w>
▁c ard</w>
i j
fi eld</w>
f ▁ter</w>
b▁u dget</w>
▁Se o▁ul</w>
d uring</w>
▁qu es
▁c o▁uld</w>
▁c o▁m
▁a pp▁
l▁i fe</w>
er e▁
▁wor ks</w>
ang ▁e</w>
8 ▁
▁ta ken</w>
wom en</w>
t▁u ally</w>
th▁e re</w>
si di
s po
a il</w>
s▁t or
pr▁o duct</w>
b loc
▁a rri
▁a ir</w>
h▁a v▁e</w>
▁new ly</w>
▁b oth</w>
u▁ ld</w>
▁i mprov
s wer</w>
a fte▁r</w>
en ▁d</w>
Th at</w>
▁con si
▁er ▁s</w>
▁A u
m▁e ▁nt</w>
in dic
f riend</w>
ke ▁e
g▁o od</w>
▁l ower</w>
▁D on</w>
w are</w>
t▁a ke</w>
L ▁e
▁m id
ti ms</w>
ic ▁al</w>
ail ed</w>
Ar▁ti▁ cl▁e</w>
▁de partment</w>
wor king</w>
repres ent
ph ot
pan ts</w>
ic u▁l
L ▁a
▁A n</w>
v e▁s</w>
u▁ ti
cont i▁nu
a▁n d
▁pay ment</w>
▁k ind</w>
▁coun tries</w>
w▁a rd</w>
ro▁ ss</w>
o▁ wn</w>
m▁on y</w>
en ▁s</w>
c▁ k</w>
▁l ow
re comm
pro▁v ince</w>
f▁u ture</w>
di▁ d
as on</w>
▁e ight</w>
n o
low er</w>
S ang</w>
▁i a</w>
ma▁n y</w>
ic kly</w>
curr▁en tly</w>
con c
a th
C or
2 8</w>
w▁ an
sc ri
▁w ou▁ld</w>
▁rec ommen
ven tion</w>
stu▁ dent▁s</w>
pro f
po▁ lita▁n</w>
inc re
dir▁ec tly</w>
ch ▁i
as ing</w>
ab lish</w>
Gov▁ern or</w>
201 7</w>
m▁u st</w>
fu▁ l</w>
▁n ational</w>
u▁n der</w>
r ying</w>
ouri sm</w>
ac▁ k
▁D ue</w>
u i</w>
e ks</w>
N am
▁c hief</w>
▁N or
t c</w>
r a▁te</w>
Nor t▁h</w>
h it</w>
C ▁a
rec tor</w>
pub l▁i
cont▁ in▁u
P▁ar ty</w>
▁Pa▁r ty</w>
▁L abor</w>
G a▁ng
t▁ur n</w>
s▁ ure</w>
le dge</w>
a▁c tion</w>
▁inte rest</w>
▁M any</w>
pro ce
l ab
&ap▁os; ve</w>
fi e▁d</w>
a▁ k
▁vi ol
s▁t a▁t
st i▁
du▁r ing</w>
si onal</w>
m▁a ge</w>
1▁ 0
▁pro jects</w>
p at
inform▁a t▁ion</w>
M ▁i
▁qu ality</w>
ab▁i l▁ity</w>
▁pic ture</w>
ong s</w>
im ed</w>
▁be▁ gan</w>
pp er</w>
educ ation</w>
▁h otel</w>
fi▁ nd</w>
ay or</w>
an▁ k</w>
▁Th ank</w>
ss ure</w>
C up</w>
▁en g
ri t</w>
p▁ t</w>
P ▁e
▁st ory</w>
st▁ ing</w>
c▁ an▁
a ft
un ▁d</w>
re ly</w>
L G</w>
▁pa id</w>
▁e ss
u s▁u
s eason</w>
cal led</w>
▁A ll</w>
us s</w>
iz ▁ed</w>
▁pol icy</w>
s▁h all</w>
regi str
ov e▁r</w>
x es</w>
mo▁t e</w>
f ur
col ▁
2 6</w>
o▁ l</w>
U.S ▁.</w>
P o
▁tech nology</w>
▁acti vities</w>
sp ▁ec
so▁ me</w>
E ▁n
▁bud get</w>
S ing
K won</w>
t▁ ant</w>
se▁ e</w>
r u▁n
fac ▁i
f i▁rst</w>
&▁ a▁
m i▁t</w>
app▁ rov
Ar▁ t▁ic
▁be in▁g</w>
o king</w>
m▁u ch</w>
im u▁m</w>
es pec
a▁g ed</w>
an ding</w>
▁en ing</w>
pl ▁
n ▁s</w>
Pro▁v in▁ce</w>
▁e xi
wor ks</w>
po si
a▁nn ual</w>
P r
pro▁duc t▁s</w>
Y e▁
C it▁y</w>
201 6</w>
▁for m</w>
sta▁n d
si v▁e</w>
H w
ri ous</w>
pro c▁e
j e</w>
f all</w>
w el
ver se</w>
equ i▁p
ar▁ d
W ith</w>
C o</w>
7 t▁h</w>
201 9</w>
▁off icial</w>
l in▁g</w>
exp▁ec ▁te▁d</w>
Gover▁n ment</w>
▁G od</w>
econ omy</w>
ch ildren</w>
ag ▁es</w>
▁V i
impo▁rt ant</w>
h▁igh ly</w>
a▁n ks</w>
▁th em
ren▁ g
ni ght</w>
est erday</w>
a▁ in</w>
Se o
▁it ems</w>
v ari
jur is
e▁as y</w>
c▁o l
Ass▁emb ly</w>
r ti
li gh
▁L i
pr ac
int e▁
exp▁en ses</w>
ch i▁ng</w>
&a▁pos; ▁d</w>
▁v ic
▁C o
ter y</w>
▁a rti
profess▁i onal</w>
&q▁u ▁ot;</w>
▁e tc</w>
▁c ooper
▁be gan</w>
▁J u
g▁h ts</w>
d▁u ct</w>
coun ▁t
Su per
▁a ut
me dia</w>
i▁ se</w>
▁wh ▁o</w>
▁su sp
n▁ ment</w>
op port
gr▁o wing</w>
co▁mp▁ any</w>
▁l o▁
▁S e▁
wr▁i tt
ti on▁al</w>
su▁ ng</w>
li st</w>
ail able</w>
D ay</w>
com b
T S</w>
▁kn own</w>
con s▁um
Y ong</w>
G en
s ely</w>
con tri
▁v alue</w>
▁n o▁t</w>
m an▁y</w>
co▁mp an▁y</w>
b ank</w>
&▁apo▁ s;t</w>
▁a sk
F ▁o
to▁ o</w>
s ay
sal es</w>
sa fety</w>
s ▁er▁
ev ed</w>
▁par agraph</w>
▁e y</w>
uc k</w>
th ly</w>
pen ing</w>
an▁ ds</w>
▁ful l</w>
▁b illion</w>
e▁r e▁nce</w>
dem on
an ing</w>
▁s m
su▁ cc
e▁st ate</w>
bi tion</w>
▁st reng
t alk</w>
stu▁d e▁nts</w>
g as</w>
f re
p▁ leas▁e</w>
n umber</w>
hou se▁
rel▁e a▁sed</w>
▁mea sures</w>
▁a udit</w>
o▁ur t</w>
c▁ la
Pa▁r ty</w>
m ag
elec tr
▁l ine</w>
▁h and
▁en ter
▁e tary</w>
t oc
W on</w>
1 6
w▁h y</w>
qu▁a r
gu i
f▁ess or</w>
D istr
n stitu
▁i nstitu
d▁i rect</w>
t▁he ir</w>
da▁ ys</w>
at in▁g</w>
al led</w>
stan ding</w>
ex cl▁u
b o▁t
T u
Gyeong g▁i</w>
▁e conomic</w>
w ▁ent</w>
e▁ men▁t</w>
▁Liber ▁ty</w>
ou ▁th</w>
a▁ ti▁
N ▁e
s ▁ent</w>
▁fun ds</w>
sti ce</w>
k il
ic ▁s</w>
det e▁r
1 s▁t</w>
st▁i t▁ute</w>
S ch
Cul ▁tural</w>
▁pro gram</w>
▁h ol
v ul
li▁ fe</w>
f u▁n
▁a r▁e</w>
R ▁i
I C
▁gen er
▁D e
il ies</w>
con▁t r
applic ▁ati▁on</w>
▁t u
▁cre ate</w>
▁S ec
situ ▁at▁ion</w>
ra z
de x</w>
s ett
pl es</w>
mea sures</w>
bu ted</w>
m ▁ents</w>
d▁em a▁nd</w>
w ent</w>
ti▁ al</w>
ss ▁es</w>
o▁ us
m▁ar k▁et</w>
Cur re▁n
eff ec
d▁e emed</w>
c▁o st</w>
▁Ch ung</w>
to▁ ok</w>
b▁ec ame</w>
▁st and
ow ard</w>
▁b lood</w>
t ar▁y</w>
k y</w>
h a▁r
etro politan</w>
ac tion</w>
▁m ight</w>
sp ▁a
rel ated</w>
adv ▁
K i</w>
▁f l
▁bu ilding</w>
va▁ri ▁ety</w>
ic a</w>
c▁ r▁e
b a▁
▁mor ning</w>
tt e▁r</w>
re qui
gh ▁ts</w>
emplo▁ yment</w>
ci ence</w>
bui▁l ding</w>
▁Wh i▁le</w>
s▁ m</w>
B lue</w>
c▁h ed</w>
c▁ an
jec ▁ts</w>
▁a▁ fter</w>
wh▁e ther</w>
ver e</w>
oth e▁r</w>
m prove</w>
▁or ▁ity</w>
le▁ ft</w>
ar ound</w>
al leg
▁wh ▁ere</w>
▁s oci
▁giv en</w>
y cle</w>
▁pre pare</w>
▁& ▁a
str ▁
ne ▁ed</w>
hou s▁e
go▁ od</w>
▁show s</w>
p pe
m▁it▁ ted</w>
l an
oth es</w>
▁is▁ sue</w>
▁e mer
supp o▁r
pr ▁
facil▁i ti▁es</w>
rien dly</w>
perfor▁ mance</w>
hi▁gh est</w>
ev ▁e</w>
as ▁es</w>
yp toc
s▁e t</w>
pos i▁
po lic
Reg a▁rdi▁ng</w>
K ing</w>
t own</w>
o▁n line</w>
i ▁ed</w>
c▁e pt</w>
▁li ght</w>
t▁ atio▁n</w>
ten ts</w>
pub l▁ic</w>
T ▁r
▁i mprove</w>
▁bel ow</w>
op▁en ing</w>
ann ive▁r
u ter</w>
exper▁i ence</w>
t▁ra vel</w>
ti o▁n
se a</w>
inc▁ rea▁se</w>
d a▁m
a z
li tical</w>
he alth</w>
grad ▁u
addi▁ tio▁n</w>
ad ded</w>
▁y esterday</w>
▁t e▁
▁re sta
▁de sign</w>
▁&▁ quot;</w>
k er▁s</w>
as e▁s</w>
▁A mo▁ng</w>
investig ation</w>
fe▁ ty</w>
e d▁uc
v▁is ory</w>
perfor mance</w>
o▁ cc
d ation</w>
an y▁
En for
▁i ci
fac ilities</w>
con fir
1 ,
▁t old</w>
▁s mo
w rit
vol u▁n
su▁ pp▁ort</w>
l ack</w>
f▁i r▁
e ing</w>
con▁t i▁nue</w>
sh i▁ng</w>
con serv
H u
▁u n▁
▁In tern
tu ally</w>
p e▁r</w>
h ab
ea red</w>
▁star ted</w>
s i▁n
qu are</w>
ga in</w>
g ital</w>
c it
Sec r▁e
st e▁
O f▁f
M ov
Con sid
▁o l▁
su▁ sp
ll ing</w>
h op▁e</w>
b or</w>
a▁ gency</w>
je▁c ts</w>
C on▁
▁con struction</w>
gr a▁
Y es</w>
▁w il▁l</w>
▁ta k
ro▁ om</w>
pro mot
per son
B o
st and
re▁ sp
en t▁s</w>
▁t em
▁H e
i▁ a</w>
c▁he on</w>
a▁ son</w>
▁D i
educ at▁ional</w>
M y
Devel o▁p
▁ne ▁e
us e▁d</w>
t▁r y▁ing</w>
tr▁a ffic</w>
me▁e tin▁g</w>
at▁ ing</w>
▁s pen
▁f ace</w>
u▁ mp</w>
sp i▁te</w>
ch ▁an
b▁e▁ come</w>
▁pa rents</w>
▁b en
sum mit</w>
inter ▁es▁ted</w>
H ee</w>
▁la w
techn▁o logy</w>
G er
▁pre vent</w>
n▁e ss</w>
dir▁ec ▁tor</w>
ati ves</w>
Th ▁r
P y
&ap▁os; ll</w>
s ers</w>
pr ing</w>
▁s y
tt ▁er</w>
n e▁r
ent al</w>
2 ▁0</w>
uti ful</w>
on▁ d</w>
▁Ch i▁na</w>
s▁h ou▁ld</w>
s e▁nt</w>
av▁er age</w>
▁p ow
di▁ t</w>
b it
mu sic</w>
ea st</w>
c▁l ud
Th ey</w>
&▁a pos▁;t</w>
u▁ t
ur th</w>
acc ou▁n
re por▁t
p re</w>
al ▁u
9 0</w>
▁g rowth</w>
vi e▁w</w>
fo▁ od</w>
▁off icials</w>
▁m em
u k
at▁ t
acti vities</w>
▁u si▁ng</w>
▁t rial</w>
▁h eavy</w>
l a▁nd</w>
ff airs</w>
M e▁
▁f o▁c
▁A l
u▁ nd</w>
the re
p ▁ed</w>
k e▁rs</w>
cen ▁t
P a
N▁or th</w>
sem icon
ori▁ ginal</w>
2 9</w>
▁Coun cil</w>
p po
di sa▁
N S</w>
ven i
l▁ l
expl a▁
un d▁er</w>
qu ali
l▁i ttle</w>
li am
▁b ri
st age</w>
opport▁ un
n et</w>
i ssue</w>
K yung</w>
produ▁c tion</w>
an a</w>
al ing</w>
Fe der
t ype</w>
lo an</w>
▁he alth</w>
▁h av▁e</w>
st ore</w>
s ome
l▁ y
l l▁y</w>
ch ▁ed</w>
te er</w>
req▁u i
op p▁o
ini ons</w>
Acc o▁rd▁
▁expen ses</w>
un▁ ds</w>
r▁ul ing</w>
ro▁ up</w>
mat e▁ri
eff ici
▁sa fety</w>
▁o u▁t</w>
st ren▁g
pre ssed</w>
nec es▁s
ma jor</w>
▁st age</w>
t▁a king</w>
st▁ or
sc en
incl▁u din▁g</w>
▁a go</w>
▁C hief</w>
ne igh
experi ▁en
ea s
R ▁o
▁mat ch</w>
▁gr ad
▁f i▁rst</w>
w a▁rd</w>
sid ▁e</w>
se en</w>
n er
indiv▁i dual</w>
fess or</w>
F es▁
Agr icul
th e▁re</w>
s▁a ry</w>
st art</w>
h▁i gh</w>
e▁ ded</w>
▁wom an</w>
u▁ p
p u▁l
neg ot
mil ar</w>
el i▁
ca▁r ri▁ed</w>
as tic</w>
Th ▁at</w>
▁a ct</w>
▁n o
S un</w>
R ▁u
C▁h e▁ong</w>
▁D id</w>
pre d▁ic
in tr▁o
D i▁
▁f av
o ve</w>
gre es</w>
can d▁i
▁B i
s▁t om
ri▁ ce</w>
de▁ ci
Co▁un cil</w>
s▁i s</w>
s▁ pe
h an</w>
▁g overn
th ers</w>
st▁it ute</w>
ot or</w>
Ch ang</w>
st ers</w>
ref er
s▁ ports</w>
n du
la w▁
f em
c▁h arge</w>
cl ass
ar by</w>
gen e▁r
ea▁ ch</w>
F ound
reco gn
coun tries</w>
cont▁ inu
ar an
O▁ff ice</w>
s anc
hea▁ d</w>
ad minis▁tr
Univer ▁
em er
con du▁c
▁i ndu
pa▁ re</w>
N ▁o
▁hav ing</w>
m et</w>
espec ▁i
C ▁om
▁to▁t a▁l</w>
w▁i t▁h</w>
s▁ ses</w>
exp e▁n
c▁ annot</w>
B e
8 .
v il
a▁n ds</w>
M E
Electr ▁on
▁w aste</w>
sel ves</w>
s i▁s</w>
r▁u mp</w>
por ting</w>
inf ra
con cer
b site</w>
Gye▁ ong
c old</w>
▁G re
▁Da egu</w>
us tice</w>
c▁o mpl
En▁ glish</w>
su▁ p
exce▁l lent</w>
de▁ ta▁
c▁a re</w>
t▁ic▁ le</w>
ail s</w>
▁gre en</w>
▁beli eve</w>
un▁ g
ch arge</w>
ce▁n tral</w>
a▁l ue</w>
▁t able</w>
ye o▁ng</w>
pe▁ opl▁e</w>
oc ks</w>
in ci
M▁in▁i stry</w>
▁a ti▁ng</w>
om ent</w>
mem▁b ers</w>
d▁i s
ac e
r▁a is
Fo▁ reign</w>
▁t i▁on</w>
ro r</w>
af ▁ter</w>
Ce▁n ter</w>
▁l ov
▁g ave</w>
st udents</w>
mil lion</w>
fo▁ c
Th ere▁
▁s a▁les</w>
▁c anc
▁att ention</w>
p ati
p .m.</w>
l ear</w>
gi ous</w>
ex▁ per
Or▁d i▁n
▁w ar</w>
sch ▁o
il▁ d</w>
aut on
&qu ▁o▁t;</w>
▁dom estic</w>
ou t▁
mon ths</w>
en▁ se</w>
ay ed</w>
ar ding</w>
ag e▁n
offi▁ci als</w>
a p</w>
F und</w>
vi ew
s▁t ment</w>
g y
deve▁ lo▁
W e▁l
▁o und</w>
v e▁n</w>
re li
pe op▁le</w>
n▁ot i▁fy</w>
j▁u dg
h y</w>
bi▁l lion</w>
▁tur ▁e</w>
▁l iving</w>
▁E ducation</w>
o ot
im▁ pro▁ve</w>
M on
▁ta king</w>
or ts</w>
an gh
H e▁
▁s aying</w>
vi▁ ded</w>
re▁ s</w>
m▁u n
l san</w>
environ m▁ental</w>
▁do esn</w>
wh▁e re</w>
ra▁ p
g ov▁er▁n
C u▁l
3 5</w>
▁str ong</w>
we st</w>
or g▁an
id ly</w>
de t▁a
T ▁o
Eur ▁o
▁wat ch</w>
S o▁
▁5 0</w>
ol og
at e
o▁u th</w>
▁sta ff</w>
i▁s m</w>
do ▁e
ch arg
I T</w>
qu ▁i
corp▁or ate</w>
P ye
▁en d
t▁ ween</w>
m ir
c i▁al</w>
▁fe es</w>
tu▁r n</w>
pro blem</w>
o ks</w>
e▁c ts</w>
a▁li zed</w>
ac ▁t</w>
▁T h▁e
ti ty</w>
th▁ r▁ough</w>
S▁ ch
K▁o r▁ea</w>
re ma▁
in in▁g</w>
▁f our</w>
▁ch e▁ck</w>
ord▁in ary</w>
min e</w>
st▁ ory</w>
a i</w>
Se▁r vice</w>
In st▁it▁ute</w>
C o
cu stom
c ou
H on▁g</w>
▁Se ou▁l</w>
t▁ ar
r▁o om</w>
n am
i▁ de</w>
f▁ ro▁m</w>
e or
ar m</w>
st op</w>
s o▁n
s m
ro le</w>
re a▁s</w>
▁a tional</w>
duc ▁ed</w>
s on▁s</w>
res erv
reco g▁n
ma t▁
h our</w>
ve▁r n
manufac t▁ur
d▁ r
l▁a st</w>
ci t▁y</w>
▁th ▁
▁ra ise</w>
te▁r m</w>
j▁u st</w>
J a▁e</w>
▁res ult</w>
▁ful ly</w>
g ress</w>
F ▁a
C▁en ▁ter</w>
▁e valu
l▁e ad</w>
e▁ f</w>
por t▁s</w>
e qui
▁l ead</w>
▁f ar</w>
we▁ ll</w>
t▁ ries</w>
la u▁n
k ▁n
h a▁l
der ▁s</w>
u▁n g
s▁yst e▁m</w>
som ▁e</w>
ou▁r t</w>
e▁ff ▁ect</w>
vi sit
expec ted</w>
b ute</w>
aliz ation</w>
▁ur▁ red</w>
▁mo ve</w>
▁kn▁o wn</w>
th ▁ing</w>
tech ▁n
t ment</w>
op ping</w>
b▁u dg
x act</w>
ti ona▁l</w>
si▁ gn
g▁a r
▁u su
▁e xact</w>
▁de termin
▁O ur</w>
p▁oli▁ ce</w>
F i
▁n ear</w>
▁en ▁t</w>
r a▁n
co▁n cer
J un▁g</w>
sh are
m oun
i pt</w>
ar ity</w>
P er
te a▁ch
sum ers</w>
i▁n to</w>
i▁ci ent</w>
di▁ vi
c▁a ll▁ed</w>
conce▁r ni▁ng</w>
▁o se</w>
resid ▁ents</w>
i▁ mp
in sula</w>
facil▁i ties</w>
at ural</w>
▁col or</w>
di st
Ye ong
O▁ n</w>
ho▁ me</w>
co▁mp a▁ny</w>
▁Off ice</w>
re commen
pl an
ol f</w>
i▁ ld</w>
ci ▁es</w>
▁e ld</w>
z ▁e</w>
s▁ ur▁
a▁ us▁e</w>
▁For m</w>
est a▁
Ar t</w>
▁pro mote</w>
▁br ing</w>
p▁ res
o▁ wn
i▁n s</w>
d r▁o
▁wor kers</w>
▁M a
w on
represent▁ ative</w>
investig ▁at▁ion</w>
att▁ ached</w>
▁se par
▁k ey</w>
▁i onal</w>
w▁h ile</w>
tic ▁i
p▁u t</w>
ex ce
com es</w>
M a▁r
▁wh ite</w>
▁applic ation</w>
ne▁ ar</w>
lea d</w>
form ed</w>
di ag
c▁ anc
constru▁c t▁ion</w>
▁u m</w>
d▁ ri
d ded</w>
▁su ff
▁hear t</w>
oth ing</w>
he at</w>
▁pop ular</w>
re ad</w>
a▁ ter</w>
a h</w>
te▁ e</w>
s mo
lec tion</w>
N o▁rth</w>
▁c an
▁M inister</w>
g l
Govern me▁nt</w>
▁m ember</w>
▁e conomy</w>
uc lear</w>
tra▁ ining</w>
shi on</w>
establ▁i s▁hed</w>
del i▁
▁ne eds</w>
▁mon ths</w>
resi▁ den▁ts</w>
com ing</w>
▁or d▁er</w>
w o▁men</w>
th ▁s</w>
te▁ nd</w>
Feb ▁ru
. ▁m
▁G en
t ted</w>
re la▁
po ll
ga t▁h
c ases</w>
M oo▁n</w>
▁sh▁a l▁l</w>
ur ▁i
B ank</w>
t▁h out</w>
st ly</w>
f i▁l
e un</w>
be gi▁n
ac ci
E co▁n
A ir</w>
20 th</w>
.▁m .</w>
▁ne ws</w>
st ab
pp e▁d</w>
▁h a▁s</w>
w▁h ic▁h</w>
under▁ st
or▁ thern</w>
off ic
k ay</w>
av ai▁l
▁v ari
tem ber</w>
s▁e lf</w>
o gn
j ▁a
d e▁n
ci▁ l</w>
p uni
ev en
&ap▁os; re</w>
▁t ▁ed</w>
▁s c▁o
r t</w>
en ding</w>
elec om
educ ▁ati▁on</w>
c all</w>
▁th i▁s</w>
st▁e ad</w>
mi▁l lio▁n</w>
▁mo del</w>
t y
in ▁i
a▁t ▁ed</w>
▁f ee</w>
ver age</w>
s▁o l
▁ma in
m y
g▁ rowth</w>
c▁a se▁s</w>
W▁h en</w>
▁sa w</w>
▁ch anged</w>
tt e▁e</w>
r o▁n
▁uni on</w>
▁ul tural</w>
se o</w>
m▁on t▁h</w>
investig▁a tio▁n</w>
hou se
v▁er y</w>
tiv ity</w>
t e▁s</w>
fe es</w>
Vi et
A mer
▁u t</w>
doc ▁u
ar ch
sa▁ me</w>
re▁ st</w>
n ine</w>
f a▁re</w>
c▁ on▁
▁wr ong</w>
▁g i
vi▁sit ▁ed</w>
sch ▁e
r▁i ty</w>
rou ps</w>
pre li
se p▁ar
re ti
Un ▁i
▁o my</w>
s▁ta▁t us</w>
s▁o o</w>
ri ghts</w>
P ar▁k</w>
▁u s</w>
▁s ize</w>
▁1 0
u ally</w>
re er</w>
pr▁o mote</w>
mi▁n e</w>
A I</w>
▁under stand</w>
▁s chedule</w>
ph y▁
n a▁m</w>
ce s▁s</w>
a▁y or</w>
▁s we
fun c
e▁l ec
H a
▁t▁ he</w>
▁co sts</w>
vi sit</w>
thr ou▁gh</w>
cra t▁ic</w>
ch a▁r
w ave</w>
tic ▁s</w>
ti m</w>
re lea
al e▁d</w>
▁e ver▁y</w>
th▁e ir</w>
N e
▁i ▁n</w>
fi ▁ed</w>
di sa
▁pr ices</w>
h▁i m</w>
devel opment</w>
c ould</w>
C▁ EO</w>
wor d</w>
p▁u b▁
chi▁ld ren</w>
at e▁r</w>
w▁ n
se▁ lf</w>
R oh</w>
Min▁i s▁ter</w>
▁ev ▁ent</w>
v o▁
ma king</w>
di st▁
▁G u
do▁e sn</w>
chi▁l dr▁en</w>
c an▁
at▁ ch</w>
Re present▁
J o▁ng</w>
▁br and</w>
pro▁ ducts</w>
y▁e es</w>
pl ▁e
n spec
m▁i ddle</w>
c▁ lu
ca▁ se</w>
B ▁an
▁loo king</w>
▁i nspec
▁a ppe
u▁ tes</w>
s p▁
▁fi ve</w>
t▁i on
i▁ll age</w>
fac t</w>
M an
the i▁r</w>
inc▁ rease</w>
com for
▁t alk</w>
▁m ess
▁li kely</w>
hu ge</w>
g ery</w>
de▁ta▁ ils</w>
commit tee</w>
Je oll
▁serv ices</w>
for ▁m</w>
b led</w>
Min▁i ster</w>
M al
10 th</w>
in t▁o</w>
anno▁un ce▁d</w>
M i▁n
li shed</w>
ch o</w>
M i
Com m▁it▁tee</w>
ra t▁e</w>
hol ds</w>
con ne▁c
E mpl
C ourt</w>
u g▁ht</w>
p▁o lic▁e</w>
mon ▁y</w>
▁ic t</w>
▁environ ment</w>
supp ▁or
ss e▁s</w>
estab li▁
at▁i on▁al</w>
ag en
▁th ▁ink</w>
t▁h s</w>
st ock</w>
J an
t▁iv al</w>
su▁ re</w>
g ur
ci e▁s</w>
S c▁i
resp o▁n
h ours</w>
g e▁t
e▁nti re</w>
clu b</w>
a▁ k</w>
aft e▁r
Gw ang
▁w elfare</w>
▁ent e▁r</w>
▁Pol ice</w>
▁Je ong</w>
ren▁ ce</w>
facil▁i t▁ies</w>
d▁i a</w>
d on▁g</w>
al tern
ac ks</w>
▁ i▁ch</w>
t▁ ory</w>
on ics</w>
g▁ row
d om</w>
comm▁un ity</w>
▁f ans</w>
t▁ re
s▁t ud
Ordi▁n a▁nc▁e</w>
&a▁pos; ▁m</w>
▁W ▁here</w>
▁B ec
ou▁ s
▁g i▁
▁en ter</w>
y ▁ed</w>
s▁ ;</w>
sp here</w>
om en</w>
is▁ su
gre at</w>
esta▁b li▁sh</w>
▁su per
possib▁i l▁ity</w>
▁Th▁e ▁re</w>
st re
ou▁ gh
k m</w>
co▁l lege</w>
a▁l u
▁er y</w>
▁Je ju</w>
bo ard</w>
apar▁t ment</w>
N ow
Ch ▁e
▁t r▁e
ul ▁
spec i▁
res▁p o▁n
presid e▁ntial</w>
Dem▁o crat▁ic</w>
mea▁ sures</w>
Ja▁n u
A sia</w>
▁g etting</w>
▁a ppo
u th</w>
sel ▁f</w>
p▁ ri▁
it▁ al</w>
bo x</w>
wr▁itt en</w>
s▁i ze</w>
per ▁c
fes▁ tiv
et eor
es sion</w>
9 .
w▁a ys</w>
u red</w>
u gh▁t</w>
a▁t e▁d</w>
st o▁m
en ▁ter
crit i▁ci
ch▁e on</w>
Di s▁trict</w>
▁j u
rel atio▁n
el t</w>
a▁ le</w>
▁G r
st ern</w>
pe t▁i
i▁ bu▁
inv e▁st
de part▁
at ch</w>
Q u
▁g lobal</w>
s old</w>
n ow
ar ▁r
▁g oods</w>
o b▁
me▁ ss
le dg
ing u
esta▁ b▁
en tial</w>
an ▁t
adv a▁n
▁tra in</w>
tri al</w>
spe▁ci fic</w>
popul ▁a
i▁s s▁u
c▁e m▁ent</w>
▁bec ame</w>
Indu s▁trial</w>
▁pro blems</w>
wi▁th o▁ut</w>
resi▁ dents</w>
n e▁xt</w>
ev e▁r</w>
comm e▁r
cl e▁
att ▁en▁ded</w>
▁pl ease</w>
r▁i se</w>
ori ties</w>
le▁ ar
f ee</w>
a o</w>
Sp▁e cial</w>
P▁rov ince</w>
pre ci
o▁ re</w>
dep en▁
▁f ur
ang ing</w>
a sh
Da e
g oo▁d</w>
facili▁ ties</w>
nec essary</w>
m ▁en</w>
s▁ ingle</w>
re r</w>
pl ▁an
l one</w>
fu▁r ther</w>
diff er
co▁un try</w>
t ations</w>
p▁eri od</w>
m its</w>
▁U niversity</w>
▁U ni
po st</w>
du c▁t</w>
U▁ .S.</w>
▁sel f</w>
tu de</w>
p on</w>
en ted</w>
▁m ind</w>
▁d u
▁aff airs</w>
wh▁i c▁h</w>
ri sk</w>
du ty</w>
b eli
i▁n ing</w>
ici ent</w>
con su
▁u t▁ion</w>
▁a tory</w>
regi on</w>
man i
in▁ clude</w>
coun ter
▁w ish</w>
m al
inf l▁u
i st
fin ▁i
eli▁ gi
an n▁o
th in▁g</w>
pa▁ ym▁ent</w>
ll e▁d</w>
ho▁ ld</w>
▁ask ▁ed</w>
▁a pp
▁M arch</w>
▁Hy un
▁G overnment</w>
i▁n v
▁u s▁ing</w>
▁c a▁use</w>
po int</w>
m ▁ed</w>
in ▁ts</w>
e▁c tive</w>
ou d</w>
d in
activ▁i t▁ies</w>
G a▁n
▁se em▁s</w>
sel ▁ec▁ted</w>
o▁ per
elec t▁r
b ase</w>
vi es</w>
sh▁o w</w>
re t▁ur
lo▁ gy</w>
▁rev e
▁D ec
ye st
p▁ ing</w>
m and</w>
▁scen e</w>
▁f ro▁m</w>
▁b ad</w>
wh a</w>
st ant</w>
elec tion</w>
e very</w>
ar▁ ti
M or▁e</w>
▁mil itary</w>
pla▁ ce</w>
e▁c ti▁on</w>
▁custom ers</w>
st ee</w>
r▁ den</w>
educ ▁at▁ion</w>
ec o</w>
d o▁n
can di▁d
&▁apo▁ s;</w>
s▁er ▁ies</w>
pr ac▁
m▁on ths</w>
li▁ gh
le▁ ss</w>
f ect</w>
e▁ ty</w>
e y
▁ca used</w>
pe▁r so▁n</w>
i▁n king</w>
i▁n come</w>
a▁p p▁e
St a▁r
O f</w>
Ch ▁
▁e ▁n
com p▁l
cer tific
H a</w>
▁R ul
ser▁ vic
of▁f ic
mor ning</w>
▁invest ment</w>
▁en ▁ess</w>
c ▁er
▁a fte▁r</w>
tur ing</w>
sh ort</w>
P ublic</w>
L and</w>
wi thout</w>
ru it</w>
et work</w>
I s▁
▁a f▁ter</w>
▁M e
o▁r m</w>
deter ▁m
c ourt</w>
&ap▁os; v▁e</w>
▁res earch</w>
w a▁l
m ▁er
i▁ or</w>
ati▁ onal</w>
R o
▁t ors</w>
si z▁ed</w>
e▁x pec
b▁ l
▁me an▁s</w>
ven ess</w>
al▁ y
G ▁r
▁s ay
▁or s</w>
▁ch e
soci ety</w>
respec tively</w>
mul ti</w>
loc▁a l</w>
d one</w>
▁tr▁i ed</w>
m ember</w>
k▁in d</w>
hai▁r man</w>
an▁a g
al▁ led</w>
▁f ile</w>
▁con tract</w>
ur i
si tive</w>
hic les</w>
fir s▁t</w>
c▁ tions</w>
ct ober</w>
R ev
D ▁o
4 5</w>
s▁t ar
sy ch
re co▁
inv ▁est
di pl
c▁i ti▁es</w>
5 t▁h</w>
w▁e en</w>
st ment</w>
r▁e g
m▁ ing</w>
mo▁ st</w>
er ▁ed</w>
S c▁h
Metro polit▁an</w>
▁a llow</w>
me ▁et</w>
le x</w>
Ame▁r ican</w>
▁A mer
v ▁ot
t▁ o
p▁ub▁ lic</w>
J▁ap an</w>
▁r ing</w>
so▁ me
read ▁y</w>
mi▁n imu▁m</w>
diff▁e ren▁t</w>
S pec
▁a ll▁y</w>
x ec
prov ince</w>
pri ses</w>
ex c▁hange</w>
ar k</w>
Or ganiz
▁sh o▁
g ove▁rn
e▁xp a▁nd</w>
201 5</w>
▁par ts</w>
▁loo ks</w>
z ▁
qu▁a l▁ity</w>
partic i▁p
leg is
i ons</w>
f▁a i▁led</w>
4 t▁h</w>
y one</w>
u▁ tion</w>
in ev
d e▁rs</w>
bi▁l lio▁n</w>
▁rel evant</w>
re sta▁
or▁ ld</w>
h▁a r
hy e</w>
▁r ole</w>
▁e ve▁nt</w>
p▁l a▁c
oo se</w>
E l
▁e xec
w o▁
econ om
ag ▁en
▁m ed</w>
▁g r▁oup</w>
t y▁p
ong ly</w>
dec▁i s▁ion</w>
bel▁i ev
▁D em
▁Bec ause</w>
w ▁om
int ▁ernal</w>
ch ild▁ren</w>
ble▁ m</w>
i g▁ht</w>
e▁ conomic</w>
a▁ pp
as▁ s
M any</w>
▁prosec ution</w>
▁a lone</w>
▁K ore
ut or</w>
conf▁ir me▁d</w>
ateg y</w>
B r▁i
vi▁sit ed</w>
r▁e as</w>
iz ation</w>
d▁ ren</w>
cu s▁tom
ar ▁ed</w>
Ch e▁
tt i▁ng</w>
e▁ w
b r▁
ar r▁e
an k
▁stud ent</w>
tou▁ ri
provi▁ si▁ons</w>
n cluding</w>
▁i ncluding</w>
manag ▁eme▁nt</w>
con ver
8 t▁h</w>
ev ▁er</w>
ab y</w>
Ru▁ ssi
G ov▁er▁n
D▁e puty</w>
w ice</w>
e▁ ach</w>
d▁ g
b▁e st</w>
al ty</w>
ad ed</w>
&▁ap▁o s;t</w>
▁v a▁lue</w>
we▁ a
vern ment</w>
a▁c ro▁ss</w>
L o▁
▁C EO</w>
ri e▁s</w>
lo st</w>
lo g▁y</w>
h ea
go al</w>
Un iv▁er
coun t</w>
▁se en</w>
▁C i
ol ▁s</w>
con d▁i
C ▁ent▁er</w>
▁w anted</w>
st u
econ omic</w>
di▁ a</w>
S up
N a</w>
3 2</w>
▁f re
▁a tely</w>
tran sf
ro versy</w>
it ▁ed</w>
f lo
En ter
&a▁po▁ s;m</w>
▁liv es</w>
▁even ▁t</w>
m▁ a▁
l▁ led</w>
situ ▁ation</w>
sen ior</w>
in ting</w>
a king</w>
O ne</w>
19 th</w>
▁u sers</w>
re str
p port
depe▁n d▁ing</w>
be▁c ▁ause</w>
b r▁i
ad verti
▁rel eased</w>
mi gr
incr▁e a▁sed</w>
▁pla▁ ce</w>
▁Par ▁ty</w>
ss i▁ng</w>
s un▁g</w>
m as</w>
fam ▁i
com pl▁a
Par ▁ty</w>
▁hi story</w>
y ou▁ng</w>
u▁ l</w>
suc ce▁ss
sec o▁nd</w>
organ ▁iz
f▁o urth</w>
C ent
▁a vo
indu▁ stry</w>
impl em▁en
fic ▁ation</w>
e▁ ts</w>
E ▁u
▁w i▁th</w>
▁cont act</w>
p▁u r
h and</w>
flic t</w>
d▁i t</w>
&apo▁ s;
▁cont inue</w>
▁ch ▁i
▁acc ount</w>
fa▁l ling</w>
▁pro duction</w>
un k</w>
situ ation</w>
ot t
e▁r y</w>
b al</w>
▁po i▁nt</w>
▁confir med</w>
w▁a n</w>
ic a▁l</w>
ea sy</w>
disc ri
de▁ red</w>
clud i▁ng</w>
6 5</w>
1 8th</w>
z es</w>
offi▁c i▁als</w>
▁particip ate</w>
▁en c▁e</w>
▁c r
s ary</w>
r▁e ally</w>
devel op
coun▁t ries</w>
ac c▁oun
▁reg ular</w>
tr ade</w>
p▁ ly</w>
er ry</w>
are▁ a</w>
B us▁
▁Y our</w>
c▁o ur
▁0 s</w>
p ▁er</w>
p i▁ng</w>
f▁u n
ex▁p ec
En vir
▁min utes</w>
▁a chi
r▁u n</w>
oun ▁
F ol
▁sub mit</w>
▁a u
▁a rt</w>
▁C hairman</w>
tax i</w>
in ds</w>
ar i▁
af▁f a▁irs</w>
▁per sons</w>
▁a c▁
▁Ch o</w>
wh i▁le</w>
p▁ lo
inc▁l u▁
in formation</w>
▁ch arg
h wa</w>
Pro m▁
▁lo st</w>
▁com mittee</w>
us sia</w>
spec ial</w>
m e▁r
h ▁o</w>
f ying</w>
e▁r al</w>
▁en ti
t▁h in</w>
sk in</w>
ren ch</w>
c▁r▁e ate</w>
Y ork</w>
▁d rama</w>
pr▁e pa▁re</w>
l ater</w>
ff s</w>
e▁ g
an▁ no▁un
esta▁b▁ lish</w>
▁s e▁r
w at▁
t ch</w>
sp ace</w>
p▁a ct</w>
p pro
l▁a w
hi st
gov▁ern ment</w>
c▁a ses</w>
Tech n▁o
▁t yp
▁Un ited</w>
x im
v ot
sa fe</w>
a wa▁y</w>
Acco▁rd▁ i▁ng</w>
ye▁ on</w>
immedi▁ ately</w>
c▁i es</w>
▁o wn
super inte▁n
el▁ p</w>
di s▁trict</w>
b a▁l
▁acc oun
stric ▁t</w>
lin es</w>
ef▁f o▁rts</w>
d al</w>
De▁ fense</w>
▁f ine</w>
▁c rime</w>
▁F in
u▁ st</w>
us er</w>
mu c▁h</w>
em ▁p
▁wh ▁i▁ch</w>
ye ▁es</w>
si o▁ns</w>
c a▁re</w>
a▁r ding</w>
▁f l▁o
▁f a▁
s▁ ung</w>
oun ds</w>
duc ing</w>
c▁an▁ not</w>
agricul ▁tural</w>
▁tra ining</w>
y ond</w>
un▁ cil</w>
pro vi
pro ce▁
h and
en sive</w>
com mo
al t▁h</w>
Pres▁i de▁nt</w>
Com m▁itt▁ee</w>
C ol
▁emplo yees</w>
x pan
tran sp
re▁ ce▁
rec▁e ▁i
li an</w>
in s▁t</w>
con su▁l
M arch</w>
▁B a▁sed</w>
ol ogy</w>
je ong</w>
ing ly</w>
fol lowing</w>
di s▁tr
▁R es
l▁a w</w>
di date</w>
&▁ap▁o s;
▁e xpan
▁a d▁
tr ue</w>
po ss▁i
cl e▁s</w>
cl a
ati ona▁l</w>
▁o pport
▁e ver</w>
▁d i▁
▁bl ack</w>
wor kers</w>
re ve
le a▁se</w>
ag ue</w>
▁t ra▁
tiv ▁es</w>
d▁ ong</w>
b▁ ri
K ong</w>
▁y et</w>
▁ l</w>
y a▁ng</w>
str ong</w>
g▁ round</w>
el f</w>
c ▁or
▁c orpor
y al</w>
in▁ v
fac ▁ility</w>
a▁n ces</w>
E un</w>
▁a ga▁
w ner</w>
te▁ st</w>
ov▁er all</w>
l▁i st</w>
in▁clu▁ ding</w>
g er
▁de ath</w>
▁U nd▁er</w>
t ec▁h
pl▁a y</w>
ar ies</w>
H all</w>
Ass embly</w>
il▁ li▁on</w>
ha▁l f</w>
attr a▁c
▁a y</w>
pro▁du▁c ts</w>
d ditional</w>
W ▁
▁con sider
p▁l ace</w>
ga p</w>
f ea
a▁d em
y an▁g</w>
tri▁l li▁on</w>
qu ality</w>
pr▁e s▁i
pro▁ gr
pa▁ ren
j o</w>
f requ
es day</w>
en ds</w>
W oo</w>
▁incre ased</w>
▁A pril</w>
t▁h od</w>
f▁ l
est i▁m
▁M on
re d▁uc
n▁e xt</w>
headqu a▁r
ag e▁s</w>
ver s▁y</w>
i▁ c▁h</w>
▁wor th</w>
▁p aper</w>
s le
hol ▁
Y ou</w>
Li fe</w>
▁cont rol</w>
shi ps</w>
se ▁e
m i▁ng</w>
der ▁ed</w>
bec ome</w>
▁j obs</w>
tic ▁e</w>
le▁c t</w>
inf lu
B▁an k</w>
▁e qui
u▁ r</w>
m▁ anag
le a▁
a▁t a</w>
▁th e▁m</w>
re t</w>
qu▁a lity</w>
me▁ as
kn own</w>
ati▁ s
an ▁i
P resid
▁f ew</w>
▁H ave</w>
t▁a in</w>
re port</w>
inc reas
eri ous</w>
Je ong</w>
Je on</w>
▁res ol
▁con tri
▁a dded</w>
ut ▁es</w>
su▁p por▁t</w>
sh op</w>
off ee</w>
m ▁es</w>
h▁el p</w>
p▁ .m.</w>
m▁a in
e▁ p</w>
c am▁e</w>
F▁or mer</w>
▁bu ilt</w>
ol ▁i
medi ately</w>
impo▁r t▁ant</w>
d▁ get</w>
al ls</w>
&▁a pos▁;</w>
ma ker</w>
ha ir</w>
h ou▁
ar ters</w>
T ▁o</w>
▁a gen
sup▁ pl
sh or
pu▁ b
o▁ ver
b▁us iness</w>
i▁ re</w>
do w▁n</w>
a▁g es</w>
Sec ▁urity</w>
▁pre dic
▁e ▁s</w>
um s</w>
pa▁r ty</w>
n ▁e</w>
n e▁t
en▁ g
bu ilding</w>
be▁li ev▁e</w>
bea u▁ti
a▁g re
a▁ u
ach ▁ed</w>
▁a m</w>
im por▁t
ch▁a r▁
cer e▁
ce re
ation ship</w>
ad a</w>
▁e mail</w>
yo▁ ung</w>
pres i▁
h▁o me</w>
appl i▁c
Gyeon▁g sang</w>
Af▁f airs</w>
▁go al</w>
▁app▁ ly</w>
ye o</w>
ru ary</w>
po▁r t▁ion</w>
me dic
l▁ in
f▁ for
2 n▁d</w>
▁t ype</w>
▁bea utiful</w>
univer s▁i
t ting</w>
g ▁ed</w>
e▁n ergy</w>
am b
▁vi▁ sit</w>
▁fo▁c us</w>
i▁r d</w>
Alt▁h o▁ugh</w>
▁sor ry</w>
▁M etropolitan</w>
t▁ in▁g</w>
il m</w>
N o.</w>
▁a▁ bout</w>
▁agre ement</w>
▁a gency</w>
▁a bo
th ird</w>
si k</w>
ma▁ tion</w>
li mit
f its</w>
diff icu▁l
c cident</w>
b o▁r
For m</w>
▁ter m</w>
▁li st</w>
▁h and</w>
▁a ccident</w>
▁S ervice</w>
▁C ul
op ic</w>
indi vi
B ▁o
rec ▁or
l▁a t▁ion</w>
ly mp
comp▁ any</w>
au ght</w>
12 th</w>
▁est ablish</w>
▁en ▁ing</w>
vi▁ ol
s▁u p▁
m et
j ae</w>
deliber ▁at▁ion</w>
Eur▁o pean</w>
▁ro ad</w>
▁com munic
▁Da e
h ol</w>
g i▁ve</w>
Coun cil</w>
▁s e▁
tur ▁al</w>
s▁up ply</w>
p▁ ;</w>
pa in</w>
la▁ w</w>
jec t▁s</w>
di s▁e
be▁ fore</w>
a▁l ity</w>
annive▁r s▁ary</w>
ab ▁out</w>
1 7
▁r o▁
▁d ream</w>
▁cou ldn</w>
pro jects</w>
e▁n t▁
ad di
preli m▁in
mi t▁
M▁o on</w>
▁per son
ti▁ on
res h</w>
pred▁ic te▁d</w>
in t▁s</w>
▁pol ic
▁p ;</w>
ver y▁
si ze</w>
pr inc▁i
pr ices</w>
i▁n ts</w>
d▁a ta</w>
b illion</w>
at▁ a</w>
▁play ers</w>
▁h y
di d
6 t▁h</w>
19 ▁
s▁ur vey</w>
s o▁ns</w>
▁emb e▁r</w>
vi▁c es</w>
st▁ar ▁ted</w>
i▁n si▁de</w>
ac a▁dem
so▁ l
prov al</w>
pres▁ cribe</w>
mi d
in▁t er
im p▁or
dis▁a ster</w>
▁s yst
▁acc ording</w>
tem p▁or
h▁igh e▁r</w>
F o▁r</w>
t▁ ype</w>
pe▁rc ent</w>
mat er
lev ▁el</w>
f▁ ree</w>
▁vis ited</w>
▁n s</w>
▁W ould</w>
w▁h i▁ch</w>
inv ▁e
er ▁al</w>
In don
▁wh e▁n</w>
▁show ed</w>
▁rec ently</w>
pres ▁en
pa ir</w>
ow s</w>
ke ep</w>
i ster</w>
g▁i ve</w>
ab or
Ar▁ t▁ic▁le</w>
▁sub ject</w>
▁resta urant</w>
▁eas y</w>
▁com es</w>
st ances</w>
ra p▁h
cu▁l tu▁re</w>
appo▁ in▁ted</w>
▁l ess</w>
oper ▁ation</w>
i▁ st</w>
h▁e ▁ad</w>
h▁a ving</w>
d au
Ch ri
▁vis ▁it</w>
v ▁ern
ov ▁e</w>
h▁ and
Curre▁n tly</w>
x change</w>
wh er▁e</w>
su s</w>
pr▁o mo▁te</w>
f a▁r</w>
el ds</w>
do w▁n
b▁u r▁den</w>
b r▁a
am ▁s</w>
Univer sity</w>
▁soci ety</w>
▁c el
des i▁gn
▁res erv
ran ch</w>
ici ous</w>
broad ca▁
att ▁end▁ed</w>
o▁u g▁h</w>
environ ment</w>
Pro f▁ess
▁u tion</w>
v arious</w>
r▁i ghts</w>
chi ef</w>
W orld</w>
Prov ▁inc▁e</w>
▁e xchange</w>
sid ▁ent</w>
o▁ur s</w>
ob ile</w>
inv e▁
emph a▁
ek end</w>
▁s em
▁G yeong
s in▁ce</w>
li e▁r</w>
i g▁n</w>
G ▁er
▁d ro
w el▁l</w>
us i▁ng</w>
ri ▁es</w>
o▁ p</w>
ar ts</w>
▁r an
▁mo▁n th</w>
▁f elt</w>
smar t
oper ation</w>
im▁ prove</w>
co▁ ll
ch anged</w>
5 2</w>
ti sh</w>
al▁ ls</w>
▁m s</w>
▁con nec
▁a ppro
v alue</w>
pro▁duc ▁ts</w>
pr in▁
n ational</w>
ind▁u s▁try</w>
et i▁ng</w>
Unive▁r s▁ity</w>
S i</w>
Res ▁earch</w>
t▁ic ▁i
op▁en ▁ing</w>
in t▁
ch ild</w>
anc e▁s</w>
ab les</w>
▁s p▁e
z z
tic ▁al</w>
syst ▁em</w>
ge▁t ting</w>
Int▁ern et</w>
▁a dditional</w>
p ple</w>
metro po▁litan</w>
jo int</w>
h s</w>
em▁ ber</w>
a▁m es</w>
Gyeong sang
F air</w>
▁s cre
▁con duct</w>
per s▁on</w>
con om
an o</w>
achi ev
Ar ticle</w>
▁a h▁ead</w>
▁&a▁ pos;s</w>
s▁ur▁ vey</w>
struc ture</w>
p y</w>
l▁ ong</w>
il ar</w>
er ce</w>
ef its</w>
Ord in▁
▁pop ul
▁o thers</w>
▁l and</w>
▁fac ▁t</w>
▁Wh ite</w>
▁D ae</w>
res o▁ur
re au</w>
1 1th</w>
▁d ▁ue</w>
st ep</w>
pr o▁t
pe▁r sons</w>
k ▁now</w>
b▁u k</w>
bus▁in es▁s</w>
▁v ac
▁ol▁ ved</w>
▁A ▁
signi f▁ic
s ale</w>
r a</w>
ou ble</w>
or ds</w>
l an▁d</w>
iv ▁i
ext ▁ernal</w>
ca▁ me</w>
0 ▁
ur▁ n</w>
st▁ ics</w>
f r▁ee</w>
E ast</w>
▁r ead</w>
ve▁ hicle</w>
subs▁i di
orga▁n i▁zed</w>
i▁m ed</w>
h ▁an
f▁o l
exp ▁er
b r▁e
b re▁
b a▁ck</w>
G od</w>
▁w on
▁t ic
▁st ay</w>
sti ll</w>
gr▁a m</w>
entr▁u sted</w>
Th i▁s</w>
J a▁pan</w>
Empl o▁
▁de f
▁a long</w>
serv ices</w>
o▁ pen
op ▁en</w>
op ped</w>
l ls</w>
C ou▁n
C i
i an</w>
wi thin</w>
un til</w>
th▁r oug▁h</w>
per mi▁
p a</w>
mi um</w>
man c▁e</w>
h ope</w>
deter▁m i▁ned</w>
&▁ap▁o s;</w>
▁t r▁a
▁ne eded</w>
▁il t</w>
▁cul tural</w>
ye a▁rs</w>
un it</w>
s▁a ying</w>
qu ▁ic
a▁v or</w>
ati c
▁th r▁ough</w>
▁rel i
▁rec ogn
▁pro mot
▁e duc
phy▁ sical</w>
p .</w>
c ▁ent▁er</w>
&a▁pos▁; m</w>
▁prov incial</w>
s ou▁
regi s▁t
me e▁ting</w>
in e▁ss</w>
du ▁e</w>
ci tizens</w>
an cy</w>
D eli
▁y o▁u</w>
re co▁m
q▁u i
i▁ ster</w>
e▁c ted</w>
appo in▁t
Y i</w>
▁fe el
▁f un</w>
▁F ore
pur c▁h
f ound</w>
ati o▁nal</w>
Ce▁n tral</w>
A pril</w>
▁smar t</w>
▁i mage</w>
str ation</w>
da em
con ▁c
ben ▁e
J on▁g</w>
▁a s▁
pla▁n n▁ing</w>
om ▁e
den ly</w>
c ars</w>
▁pre sident</w>
▁d one</w>
un i▁
s ou
rel at▁ed</w>
fun ▁c
dec r▁e
con▁ si▁
a▁ sk</w>
al l▁o
▁gu i
▁a r▁eas</w>
w▁an ▁ted</w>
pro▁ perty</w>
it a▁l</w>
a▁ ir</w>
▁ap▁ ply</w>
s en</w>
pr▁o v
h wan</w>
comm em
ar i▁ng</w>
▁H uman</w>
streng th
min d</w>
g ation</w>
ch anges</w>
af ternoon</w>
N o▁
▁h ea
i▁n es</w>
inc rease</w>
ear s</w>
d▁i ff
compe ti▁
a▁ ce</w>
amp i
H o▁
2 1st</w>
ro▁ ad</w>
ne g▁a
hi▁ st▁ory</w>
co▁n duct</w>
com▁p any</w>
al ▁ity</w>
S oo</w>
Develo▁p ment</w>
3 r▁d</w>
su f▁f
re ment</w>
▁tra vel</w>
▁out side</w>
▁fam ous</w>
▁en ough</w>
▁J ong</w>
ye on▁g</w>
Se ong
▁g l
▁B o
si b
sep▁ar ate</w>
on om
ne▁ ss</w>
h uman</w>
f▁am ous</w>
Ch ri▁
ta ins</w>
mat ch</w>
k el▁y</w>
k a</w>
j i▁n</w>
con ve▁n
con si
c ut</w>
Ch ▁u
▁concer ning</w>
pl a▁y
mar k</w>
inter ▁
fer red</w>
dam age</w>
conven ▁i
A T</w>
▁st ation</w>
▁plan ning</w>
tech nology</w>
ta e</w>
f ▁t
d ri▁
d ary</w>
ar t▁i
ac ti▁
C E▁
v ailable</w>
tran s▁
s▁t ing</w>
res▁i dent</w>
g▁ro▁ wth</w>
fol▁ lo▁wed</w>
th i▁ng</w>
res ▁ea▁r
pos▁i tive</w>
inst al
at u▁r
Y oun▁g</w>
Y ong
&apo▁ s;t</w>
▁th i▁nk</w>
▁air s</w>
cr yptoc
a▁l ways</w>
G r
▁s i▁nce</w>
ud i</w>
i▁c er</w>
as ks</w>
▁’ ’</w>
▁a vailable</w>
w▁e ek</w>
t▁ ici
oun d▁a
h um
g row</w>
cri bed</w>
b u▁r
Y o▁u</w>
Un i▁
J▁a pan
Chung che
3 3</w>
ter ▁
re le▁
per cent</w>
▁h ap
▁e ar</w>
▁ci tizens</w>
▁Gw angju</w>
tri p</w>
s▁ ha
pl ease</w>
h ang</w>
e▁n s▁ion</w>
x y</w>
e▁ mp
d ang</w>
Ch i▁na</w>
▁deci sion</w>
▁May ▁or</w>
us ▁es</w>
thr ou▁gh
rel▁e ased</w>
pr a▁c
lo w▁
i▁m p▁act</w>
f▁e ty</w>
di o</w>
cou▁ ldn</w>
U.S .
F r▁om</w>
t▁r a▁
sub m▁it▁ted</w>
si▁ milar</w>
sc▁h ool</w>
leg ed</w>
R ul
P a▁
▁D ong</w>
um n</w>
lan▁gu age</w>
is s</w>
con▁tr act</w>
F e▁
▁o t</w>
il▁ lio▁n</w>
er e▁d</w>
contr ▁i
1▁ st</w>
▁om ous</w>
v oc
s▁a me</w>
r▁e s
le▁ av
d▁ir▁ec t▁or</w>
cen ▁t</w>
▁di stri
▁bec om
th re
pr▁o jec▁t</w>
pers▁on nel</w>
is tics</w>
b▁ re
ve▁ ly</w>
th r▁ee</w>
our th</w>
ho▁ pe</w>
en ced</w>
el eme▁ntary</w>
d▁e sign</w>
d ol
con fe▁
▁s on</w>
▁o lder</w>
oci ation</w>
e▁as ily</w>
an ded</w>
▁se ▁e
▁com ing</w>
s ac
or i</w>
mi▁ ttee</w>
ma inte▁n
grad u
f▁ ri
form ▁er</w>
f ront</w>
establis▁h m▁ent</w>
d▁ d
▁er a</w>
▁Pe ople</w>
▁K ak
t▁ op</w>
g a</w>
exper▁i e▁nce</w>
e very
e up</w>
den ti
▁t ▁i
▁pur chase</w>
▁ ment</w>
y o▁ur</w>
y men▁t</w>
mo s▁t</w>
li ves</w>
k ▁en</w>
g lobal</w>
disc u▁
c▁om ing</w>
consider ▁at▁ion</w>
cel eb
▁sol ve</w>
▁e m▁b
eli▁gi b▁le</w>
a▁g r▁e
S ▁o</w>
M a▁y</w>
G ▁u
▁usu ally</w>
▁boo ks</w>
wo▁r k▁ing</w>
w ol</w>
se x</w>
re▁ vi
e t▁y</w>
a▁m ount</w>
▁wor ds</w>
▁mat erials</w>
▁deli ber
w ar▁d</w>
unive▁r sity</w>
r▁e po▁rt</w>
o▁ ther</w>
j ung</w>
i ds</w>
e br
d▁ in▁g</w>
ar▁ ing</w>
&a▁ pos▁;</w>
u▁ m
t▁e st</w>
pro duct</w>
fe ren
en ▁h
di ed</w>
Y ear</w>
D ep
z one</w>
res▁po▁n se</w>
m▁o ve</w>
me▁ di
m ut
ke▁ ts</w>
f▁o od</w>
co▁un ▁try</w>
Y e▁s</w>
J un
▁ta in</w>
▁po▁ int</w>
▁T a
it able</w>
f▁o re</w>
en▁ ti
▁ho spital</w>
ve▁ red</w>
i shed</w>
fi g▁h
T o▁ur
M r.</w>
Ga▁ng won</w>
▁N o</w>
▁M r.</w>
▁200 ▁
ta ined</w>
m▁a k▁ing</w>
du▁c t</w>
acti vi▁
▁in g
▁dem and</w>
par ▁ed</w>
n e▁r</w>
f loor</w>
f ish</w>
ele▁c tric</w>
coun▁tri e▁s</w>
▁s am
▁hou sing</w>
offi▁ci al▁s</w>
m ▁in</w>
et ▁ed</w>
al i▁ty</w>
5 G</w>
▁appl ied</w>
transpor t▁ation</w>
gi ble</w>
f ound
d▁a m▁age</w>
d ra▁
ch▁an▁g es</w>
ad y</w>
G overnment</w>
Enfor c▁ement</w>
x hi
k eting</w>
fir m</w>
en sion</w>
bet ween</w>
C an
poli▁ tan</w>
com▁p an
ach ers</w>
▁re por
▁o pening</w>
▁c l▁o
u▁ni que</w>
u▁n a▁ble</w>
use um</w>
ti s</w>
our ce</w>
m▁e t▁hod</w>
f th</w>
cl e
Commi▁ ssion</w>
u▁ ses</w>
u gh
se▁r v▁ice</w>
sec tor</w>
h a▁n
en ergy</w>
at trac
&ap▁os; t</w>
resta u▁r
ar r
acc um
Se ou▁l</w>
M eteor
C▁o un
▁s ound</w>
▁T V</w>
wi fe</w>
n a</w>
dev ▁e
de st
▁e xhi
tom orrow</w>
pro▁ vi▁ded</w>
me an▁
gu ar▁
Hy e</w>
▁t y▁p
▁Se▁ oul</w>
s oc▁i
prelim▁in ary</w>
on gh
co▁n ▁
b▁o dy</w>
ad ca
▁s id
▁f r▁om</w>
▁S pec
al▁ read▁y</w>
B yung</w>
▁&ap▁o s;</w>
s▁ch ▁ool</w>
si▁ ve</w>
p▁o w
k ▁ers</w>
du▁c tion</w>
bi▁ g</w>
ar▁ ri
▁res p
▁m other</w>
v a▁te</w>
i▁ gh
de▁ f
begi▁n n▁ing</w>
Th▁e y</w>
N ation▁al</w>
v at▁e</w>
sti an</w>
ri day</w>
pub▁ lic
pre p▁ar
o grap
j▁o y</w>
d▁ dle</w>
bo▁t h</w>
▁po▁ wer</w>
▁dr ink</w>
▁St ates</w>
t▁ i▁
s▁; s</w>
r▁e t▁urn</w>
pl a
&qu o▁t▁;</w>
▁wi th
▁tri ed</w>
▁D ef
uni ties</w>
s i▁ng
ic ▁es</w>
elecom munic
bo▁ dy</w>
ak ▁e</w>
S S</w>
▁s ure</w>
▁retur n</w>
▁qu ite</w>
▁mid dle</w>
rec ▁o
im self</w>
c▁ .</w>
cel lent</w>
bro a▁d
a▁l y▁
S ▁ec
▁i de
▁S o
ord ance</w>
li gence</w>
fe e▁l</w>
contro▁ vers▁y</w>
a▁r ch</w>
ar▁d l▁ess</w>
al ▁ed</w>
H er
▁fil m</w>
▁com munity</w>
min is
insp e▁ction</w>
disc ▁u
con n
acti ce</w>
Gang w▁on</w>
▁s ong</w>
cu sto▁m
b on</w>
U▁ S</w>
▁J i</w>
s▁i mple</w>
s we
rou ▁n
mu s▁t</w>
l▁o gy</w>
expa▁n s▁ion</w>
cit i▁z
A u▁
▁c hi
u p▁
f▁i c▁a
b al
▁in ary</w>
u t▁ion</w>
tog▁e t▁her</w>
par k</w>
ou▁r s</w>
co▁n trol</w>
&▁qu ▁ot▁;</w>
▁li st
ur▁ rency</w>
sh ▁e
li st
k n▁o
g e▁d</w>
e▁ ther</w>
coun t▁ries</w>
▁o il</w>
stud ▁ents</w>
r gu
▁a rgu
m▁ar ke▁t</w>
foll▁o wi▁ng</w>
ach ing</w>
F ▁e
▁establi shed</w>
▁bu ild</w>
t▁ or
res ults</w>
m▁i tted</w>
ec ▁t</w>
aliz ▁at▁ion</w>
Ch ▁o
&a▁ mp;</w>
sub si▁
no▁ logy</w>
improv ▁em▁ent</w>
i ther</w>
be▁c a▁us▁e</w>
a▁l l
av o
ab ilities</w>
F ire</w>
▁t ou
▁b e▁c
le▁ad ing</w>
entr u
ac ▁hi
▁devel op</w>
▁J an
rec▁eiv ▁ed</w>
l▁ i▁
d▁ ram
ab ▁or</w>
L ea
B e▁
▁po inted</w>
▁direc tly</w>
prom▁ot ▁ion</w>
chi▁l d▁ren</w>
R▁ W</w>
Pro▁v i▁nce</w>
1 5th</w>
▁w in
▁tea ms</w>
w a▁t
n y</w>
dis cipl
aff airs</w>
D ▁ec
▁sh or
▁ra ther</w>
▁dam age</w>
t ty</w>
n come</w>
▁i ncome</w>
la t▁e</w>
con fi
acc▁i dent</w>
T r▁ump</w>
Metro po▁lita▁n</w>
war m</w>
t otal</w>
l▁i ve</w>
I m
▁in a</w>
▁d en
t▁i al</w>
t able</w>
n divi
▁i ndivi
h el▁p</w>
ex e▁r
aff il▁i
G ang▁
▁he▁ ads</w>
st yle</w>
M o▁on</w>
▁H ong</w>
un ds</w>
o▁ ols</w>
man ces</w>
e▁l s</w>
▁pres ent</w>
pro fit</w>
pa▁ ti
p t▁ion</w>
l▁e ft</w>
i e</w>
f▁a ce</w>
e▁ ms</w>
exp re▁
equ ▁i
Fes▁ tiv
Che ong
s ▁or
pa▁r t</w>
n ▁er</w>
fort able</w>
c as▁e</w>
T ha
▁pre par
▁or dered</w>
▁il legal</w>
st▁ud ent</w>
m▁ .</w>
g a▁n</w>
b ac▁k</w>
ag ing</w>
&am ▁p;</w>
▁pro vided</w>
tern al</w>
sett l▁e
ser ve</w>
po▁r ts</w>
pos ▁ed</w>
of▁f ice</w>
m ar</w>
int ly</w>
g ave</w>
doc u
Sou ▁th</w>
▁ma j
▁in e</w>
▁e sted</w>
▁d re
s t▁ic</w>
ra w</w>
qu es
po sit</w>
est i▁
e pt</w>
diff e▁
P▁ ro
▁sc▁o pe</w>
▁Ass embly</w>
ul ▁t</w>
li▁ gence</w>
diffe rent</w>
concen tr
ch all
a s▁t</w>
S un
C e▁nt
▁f o▁r
▁a t▁i▁on</w>
▁Ch ri
v ▁en</w>
me▁e ti▁ng</w>
gen c▁y</w>
ea▁ m</w>
c▁om mon</w>
bas ▁ed</w>
Y ang
K T</w>
▁expl ained</w>
sta▁nd ard</w>
p e▁d</w>
o▁ k
m ou▁n
inv est▁
ing re
g▁ ram</w>
govern▁ ment</w>
en ▁ter</w>
a▁t or</w>
▁eas ily</w>
▁deli very</w>
▁Y oung</w>
i▁bu▁ ted</w>
cer▁e m▁ony</w>
Pro▁v incial</w>
wh e
pre▁ sen
gen ▁cy</w>
fo▁c u▁sed</w>
fi▁r s▁t</w>
ar▁ m
R ▁a
▁st op</w>
▁pres cribe</w>
▁eff ect</w>
▁P h
w ay▁s</w>
tiz en</w>
sc ape</w>
o▁ff i▁ce</w>
incre▁as ing</w>
f ic▁
bi▁ ggest</w>
b ill</w>
W a</w>
M▁a y</w>
▁sk in</w>
s▁t o▁
j a</w>
investig▁a ti▁ng</w>
Ass e▁mb
3 4</w>
▁a ls</w>
i▁n ds</w>
R yu</w>
2 th</w>
h all</w>
b e▁r
a▁r oun▁d</w>
Th e▁y</w>
S i
C▁h e
&a▁po▁ s;</w>
y ▁s</w>
u▁ gg
t trac
re▁ ading</w>
d den</w>
bor n</w>
Ju▁ stice</w>
▁s eason</w>
▁s a▁id</w>
▁g ames</w>
m▁e mb
c al</w>
Eco▁n omic</w>
▁o me</w>
▁d ust</w>
tr ▁
st▁ar ted</w>
pa▁ st</w>
mit t▁ee</w>
ar▁ ly</w>
▁w ▁here</w>
▁w in</w>
▁polic ies</w>
▁inte rested</w>
▁cle an</w>
x imum</w>
ti veness</w>
r▁i sk</w>
pri ate</w>
opport▁un ▁ity</w>
char ▁a
b al▁l</w>
▁wa it</w>
sec u▁
l▁i v▁ing</w>
ex ce▁
ann ou▁n
Ordi▁n ance</w>
▁c are
t▁ ati▁on</w>
s▁s or</w>
s▁ ince</w>
or al</w>
oc ratic</w>
m▁ mit</w>
ci vil</w>
2 ,
▁pro motion</w>
▁O ther</w>
v eg
mat ters</w>
▁prov ince</w>
▁fal ls</w>
ven ue</w>
th e▁n</w>
r▁o ad</w>
cu▁l t▁ure</w>
ar ri
S e</w>
▁a ssi
pub▁ lic</w>
o▁ i</w>
d rug</w>
a▁ tive</w>
P re
▁se veral</w>
▁mo▁n ey</w>
▁m en
▁docu ments</w>
▁c old</w>
s ingle</w>
pro▁ ject</w>
n om
commun ity</w>
comme▁r cial</w>
▁e mber</w>
▁ci vic</w>
ye▁ ars</w>
s▁ch o▁ol</w>
si dential</w>
per fo▁r
ge ts</w>
e▁x port</w>
al one</w>
a ult</w>
M an▁ag
▁ph ot
▁P o
repor▁t edly</w>
mot her</w>
ap pe▁
ac tive</w>
19 9
▁bo ard</w>
▁a ttrac
si t▁e</w>
f ell</w>
e▁n tary</w>
ed ▁ed</w>
b ro▁
all ▁ed</w>
In v
Administr ▁ation</w>
&ap▁o s▁;</w>
▁some one</w>
w▁or ld</w>
ut ors</w>
off icials</w>
fi▁ re</w>
al▁ k</w>
P ub
2▁0 0
▁p or
▁o w</w>
oo k
n a▁me</w>
dir▁ec tor</w>
co s
Y u</w>
S▁e ou▁l</w>
&a▁po▁ s;
▁v ot
re pr▁e
jo▁ bs</w>
h▁igh er</w>
an▁ ded</w>
H eadqu
▁e yes</w>
ve▁ l</w>
ge▁n cy</w>
en for
c▁re ate</w>
con s▁i
com▁ b
cl ▁es</w>
c l▁
▁d on
▁Ch oi</w>
superinte▁n d▁ent</w>
o▁r d</w>
h oon</w>
Hy u▁n</w>
G roup</w>
▁r ights</w>
per form
o▁ ci
l and
c tively</w>
bu▁ s
J in
▁v oice</w>
▁ic s</w>
▁e p
▁Y es</w>
sel ▁ected</w>
pro▁ jects</w>
p ass</w>
ga▁ me</w>
f ts</w>
e ye</w>
di f▁f
de ath</w>
b ing</w>
ati z
▁a ctively</w>
▁S un
ope▁r a▁ted</w>
oll ars</w>
l y▁
issu es</w>
ir l
expla▁ ined</w>
exhib▁i tion</w>
di▁ sp
c▁on t
comp▁ ri▁
▁tre atment</w>
▁sim ilar</w>
▁col l
r▁e du▁ce</w>
in e
dec lar
de ep</w>
H a▁n
1 7th</w>
present ative</w>
k ▁es</w>
in▁ st
i do</w>
ha p▁
gr icul
e yes</w>
det▁a iled</w>
compreh e▁nsive</w>
Ch ▁a
▁w age</w>
▁vol un
▁th▁e me</w>
▁oper ate</w>
▁o w▁
on an</w>
fun ds</w>
f ▁are</w>
f ar▁e</w>
ev i
c▁re dit</w>
cha▁ir ▁man</w>
c i▁ng</w>
c at
ati on▁s</w>
apar t▁
F ▁ir
▁v er
th day</w>
sa w</w>
oo▁ ls</w>
on ▁es</w>
incre ased</w>
ch ers</w>
bu il▁d
ag ▁re
3 8</w>
▁pre pared</w>
▁f all</w>
▁c ars</w>
ti o▁nal</w>
ran ge</w>
p▁r i▁ces</w>
pro ce▁ss
mi se</w>
ma i▁n</w>
b y
Manag ▁ement</w>
2 7th</w>
▁docu ment</w>
▁b ank</w>
▁ in▁g</w>
tu m</w>
oun tain</w>
it e▁d</w>
hi story</w>
com m▁it▁tee</w>
clu d▁ing</w>
bec ause</w>
ri age</w>
po p▁u
lea▁r ning</w>
ar e▁d</w>
ag ency</w>
▁intern ational</w>
▁h o▁urs</w>
▁U .S
wi se</w>
w ▁in</w>
sch ol
invest i▁g
int▁e res▁t</w>
g ra
d▁a mage</w>
di ss
a w
F ilm</w>
ta i▁n</w>
sh al▁l</w>
re a▁l</w>
n line</w>
i▁c al</w>
h▁i t</w>
g▁ ra▁
201 4</w>
▁s e▁nse</w>
▁organiz ation</w>
▁b ro▁
▁a dd
r▁en tal</w>
p▁l ay</w>
il▁i ty</w>
commiss▁i o▁ned</w>
be i▁ng</w>
a▁ reas</w>
▁4 0</w>
t▁h ▁at</w>
reg a▁rdi▁ng</w>
l▁e t</w>
ad i▁
En▁ g
3 7</w>
▁re st</w>
y▁e on</w>
s▁h o▁
rev▁e ale▁d</w>
mea▁sur ▁es</w>
l ds</w>
fe ▁es</w>
d▁i rec
v al
r▁e ce
int ▁ern
inc▁lu▁ ded</w>
f▁u ll</w>
Meteor olo▁gical</w>
▁qu ickly</w>
▁con sul
u▁n ds</w>
t ou
si ties</w>
l▁e a▁
li ving</w>
i▁l ity</w>
g row
el e▁ction</w>
a▁r ing</w>
av ed</w>
W i
CE▁ O</w>
▁sle ep</w>
in▁ st▁ead</w>
im p▁rov
f▁i l
fel t</w>
et ter</w>
empl▁o y▁ees</w>
e on</w>
H ▁u
pa▁ red</w>
inform▁a ti▁on</w>
incl▁u ▁ding</w>
f r▁e
d ding</w>
char a▁c
acc oun
1▁ 5</w>
▁a rea▁s</w>
s▁ pr▁e
organiz at▁ions</w>
diff icul
c er</w>
b ate</w>
▁su p▁
j▁o b</w>
ch e▁
ch ang</w>
agre ement</w>
aga inst</w>
W ar</w>
H ouse</w>
▁di sp
▁20 ▁1
u▁ gh
t oo▁k</w>
r ant</w>
pub lic
mi▁ ssion</w>
em▁b ly</w>
dic tion</w>
b▁ ro
bu il▁
T C</w>
In cheon</w>
G re
▁sum mer</w>
▁m emb
▁cont ent</w>
un ched</w>
p▁ ment</w>
ot ▁t
conc ▁ern
budg ▁etary</w>
ab ou▁t</w>
▁th re▁e</w>
t▁ ten</w>
s▁um mit</w>
sh ▁or
qui re</w>
li es</w>
em e▁r
Tr ade</w>
C ooper
▁te acher</w>
▁for ce</w>
pr▁o je▁ct</w>
not ▁i
ind▁u st▁ry</w>
h u▁
e▁r n</w>
e▁ ld</w>
d ▁ers</w>
ch ild
▁selec ted</w>
▁gro wing</w>
▁B a
▁201 8</w>
▁201 6</w>
pre▁ vi
g ure</w>
for ▁
for ms</w>
devel op▁
con ▁ta
C▁h in▁a</w>
1 4th</w>
▁pl ant</w>
▁cl othes</w>
ut e▁s</w>
ur i</w>
evalu ▁ation</w>
a▁r gu
a po
13 th</w>
▁H i
r▁ul i▁ng</w>
r ue</w>
m▁itt e▁e</w>
j▁ec ts</w>
in y</w>
ec tive</w>
diff▁ic u▁lt</w>
a▁r ds</w>
Vi ▁e
Tr ump</w>
&apos; m</w>
▁$ $</w>
t▁it i▁on</w>
sol ▁
ph y
de▁ li
cu▁l ture</w>
cen tr
▁v en
ve red</w>
s▁h ▁o
gg er</w>
f lo▁
f iv▁e</w>
cal cul
ac tiv
▁ta ste</w>
▁n atural</w>
ye e▁s</w>
wo▁rk ▁ers</w>
t▁i ally</w>
s▁e en</w>
po t</w>
mak ▁er</w>
in cluding</w>
f▁i cial</w>
clud in▁g</w>
A i▁r
▁str uc
respon sib▁i
pr▁ o▁
o▁ gy</w>
mo▁n thly</w>
fe ▁e
appro p▁ri
Ar▁t▁ic l▁e</w>
▁con veni
u mb
re du▁ct▁ion</w>
qu e▁s
pub li▁c</w>
g ro
c tor</w>
b a▁ll</w>
▁t rue</w>
▁e ▁r</w>
▁b or
▁b loc
▁Hyun dai</w>
u▁n e</w>
p▁er i▁od</w>
ph en
ak es</w>
ac▁h ed</w>
I l
▁pl ac▁e</w>
▁fur ther</w>
t▁h ou▁gh</w>
si▁ mi▁l
ori gi▁n
foc ▁us▁ing</w>
fa▁r m
er ▁a
enter tai▁n
em ▁er
a▁ i
P e▁n
w ou▁ld</w>
th ink</w>
on ds</w>
l ement</w>
bus▁ in▁ess</w>
S chool</w>
▁writ ten</w>
▁wh i▁c▁h</w>
▁e red</w>
y e▁d</w>
op▁ in
o f▁f</w>
le▁ ase</w>
at▁ ten
S▁ chool</w>
A ir
. m▁.</w>
▁pa▁r ts</w>
▁Tr u▁mp</w>
e very▁
d▁e ci
desig▁n a▁ted</w>
chec k</w>
Fo▁ od</w>
▁s old</w>
▁s ays</w>
▁avo id</w>
o▁t e</w>
oc cur
i▁ sh</w>
d▁ on
doc um
discri min
adv ance</w>
▁t ouri
▁r igh▁t</w>
▁er ▁ing</w>
st▁ re
o▁n gnam</w>
disc us▁
con d</w>
ac ▁coun
Fol l▁o
is ▁i
im e▁d</w>
e▁ ve</w>
el ▁ec
Envir o▁n
▁sh ar
▁r ise</w>
ter ▁n
ta▁ x</w>
n g
i▁n c▁e</w>
cont▁in▁u ed</w>
b▁e tter</w>
at ▁er</w>
F A</w>
▁ty▁p es</w>
▁st re
▁sp eak</w>
z be
s▁t e</w>
st ered</w>
rou g▁h</w>
r ban</w>
o ft
n▁o on</w>
elect▁r onic</w>
coun s▁e
con▁ sumer</w>
St ates</w>
Ge▁n eral</w>
w▁ an▁t</w>
r▁e s</w>
pa▁ y</w>
exp▁ec ted</w>
exec u▁
den ▁ce</w>
B y
▁con ver
▁T h▁ere</w>
se▁ nd</w>
n▁e arby</w>
n side</w>
▁i nside</w>
al▁ f</w>
S A</w>
Ba ek</w>
▁d r▁a
▁ch anges</w>
st in▁g</w>
min utes</w>
hous▁e hold</w>
an a▁ly▁
3 6</w>
▁fi xed</w>
su ppo▁rt</w>
respon▁ sib▁le</w>
p▁ ped</w>
mo▁r n▁ing</w>
We▁l fare</w>
E D</w>
▁pro ce
wo▁rk e▁rs</w>
ti▁c s</w>
pri vate</w>
par liam
p inion</w>
on se</w>
intro du▁ct▁ion</w>
ce▁n ter</w>
▁sec urity</w>
▁e ly</w>
▁B ank</w>
sti t▁u
r▁ o▁
law m▁a
f al
cri sis</w>
cer▁e mo▁ny</w>
b▁udg ▁et</w>
V ▁i
20 ▁0
▁i zed</w>
▁b ought</w>
t ar
s day</w>
pri se</w>
pe▁ri od</w>
con▁cer n▁s</w>
bui▁l d▁ing</w>
▁revi ew</w>
s▁ch oo▁l</w>
relea sed</w>
le▁ ad</w>
inv ▁ol▁ved</w>
con ta▁
ac cident</w>
▁s ense</w>
▁po sition</w>
▁mess age</w>
▁bus in
▁Su preme</w>
t re▁
signif▁ic ant</w>
pe▁r son</w>
as o▁n</w>
▁ra ised</w>
▁pe ace</w>
trea▁t ment</w>
mar k▁e
manufact▁ur ing</w>
c▁o u▁n
▁s oo</w>
▁adv ance</w>
ri t▁y</w>
i▁ver sity</w>
gen eral</w>
f an</w>
c ore</w>
accou▁n ting</w>
J oo</w>
▁possi bility</w>
▁lea▁ st</w>
w in
se▁ t</w>
p▁ol▁i cy</w>
m▁ ple</w>
juris di▁c
hi▁ nd</w>
f rien
f a▁ns</w>
acc ep
E m
E d▁uc
▁i sn</w>
fol lows</w>
e▁ k
c▁ lo▁
at est</w>
G▁ ye
▁inte re
st o▁ry</w>
qu a▁r
particip▁a t▁ion</w>
o▁p en</w>
l▁o t</w>
l▁a te</w>
er o</w>
be▁ st</w>
am p</w>
5 5</w>
▁u niversity</w>
x ▁i
t▁i e▁s</w>
t un
re vit
R o▁
▁ne▁e ds</w>
w a▁n</w>
polic ies</w>
min i▁
e▁ x</w>
e t▁ing</w>
a▁n ies</w>
ap ply</w>
K R▁W</w>
9 t▁h</w>
▁tra ffic</w>
▁inv ol
re li▁
o ked</w>
n▁a tional</w>
F ood</w>
2 5th</w>
▁pri or</w>
vis ory</w>
re rs</w>
organ i▁z
on▁ ment</w>
ch e▁c
a▁d ded</w>
ap id</w>
agre ▁em▁ent</w>
S ▁en
M o
▁s w
ye o▁n</w>
pu▁ blic</w>
m ation</w>
▁r s</w>
▁cer tific
n surance</w>
▁i nsurance</w>
er t</w>
en▁ tion</w>
der al</w>
an al▁y
am ▁o
aca▁dem ic</w>
4 0
▁k il
▁en ▁ts</w>
▁a ▁s</w>
t▁i m▁e</w>
sche▁ dul
pur▁ chase</w>
negot i▁
ic o</w>
h▁ y
h or
gh t▁s</w>
▁f ou▁nd</w>
▁en ergy</w>
▁d ance</w>
▁Ju ly</w>
pl ▁y</w>
opi▁n i▁ons</w>
mu▁ ch</w>
incl▁u d▁ing</w>
S p
▁wom ▁en</w>
▁tre nd</w>
se▁ rious</w>
re▁ as</w>
pro▁vi d▁ed</w>
ind ust▁
c▁lud e▁d</w>
administr ation</w>
Depar▁t m▁ent</w>
4 00</w>
▁W or
▁G o
v i▁llage</w>
n▁e l</w>
l▁i kel▁y</w>
i▁m es</w>
con sec▁u
bl▁e ms</w>
▁A b
kn ow▁
▁pro fes
▁bu ▁ilt</w>
▁Com mission</w>
ul ▁y</w>
s o▁r
k chain</w>
h▁o pe</w>
g▁a me</w>
gr and
d▁i cial</w>
de▁ ta
communic ▁ation</w>
b e▁n
W ▁or
Cha▁ir ma▁n</w>
1 6th</w>
▁de pen
pro blems</w>
jur y</w>
d ae</w>
cou▁n try</w>
b ok</w>
So hn</w>
J▁u ne</w>
y▁ u</w>
om en
neg▁a tive</w>
maj ▁or▁ity</w>
exhi bi▁
c▁ ked</w>
S▁a fety</w>
▁over seas</w>
recru i▁t
p▁u r▁
pl ▁o
pl a▁t
m▁i d
fe a▁t
&q▁u o▁t▁;</w>
▁wr ite</w>
▁p .m.</w>
▁custom er</w>
▁Su won</w>
w▁i t▁hin</w>
ta ek</w>
s oc
r▁a ised</w>
ri e▁d</w>
offi▁ci a▁ls</w>
m u▁n
et ary</w>
en th
deter ▁
ap p▁l
3 th</w>
▁w▁h ich</w>
sur rou▁n
ren c▁e</w>
p u▁t</w>
h an▁d
ex c▁e
direc tor</w>
S ub
F ▁u
E le▁c
▁fav or
▁2 ,
si on▁s</w>
prov▁i ding</w>
ord i▁n
mem▁b er▁s</w>
l▁a ge</w>
li f▁e</w>
c tions</w>
a▁ li▁
▁con ducted</w>
▁col lege</w>
s▁u res</w>
sex ual</w>
m u▁s
l ation</w>
inc▁ lu
cond▁uc ted</w>
▁me thod</w>
▁P a
▁&apo▁ s;</w>
y self</w>
th ods</w>
sub sc
st er
s ea
o▁un ▁d</w>
o▁p e▁ned</w>
H▁e al▁th</w>
1▁ 1</w>
▁o pinion</w>
uro pe</w>
t▁a x</w>
t ant</w>
s▁how ed</w>
som ▁e
p▁o p</w>
a▁m ong</w>
ar ance</w>
ac ▁t
a ment</w>
Sam sung</w>
▁si x</w>
▁se a</w>
▁e ts</w>
▁b it</w>
▁Y outh</w>
▁&apos; t</w>
pr▁o f▁essor</w>
m i▁n</w>
k▁ in▁g</w>
diff i▁c
c▁ tio▁n</w>
W ▁a
▁devel oped</w>
▁D is
th ose</w>
pr▁e ve▁nt</w>
partic▁i p
erci se</w>
co▁un tr▁y</w>
cess ful</w>
Ord in
En glish</w>
▁su gg
▁cre ated</w>
▁E lectr
t▁a in
en ge</w>
c▁h i
u▁r se</w>
sel l</w>
res ▁o
rece▁ iv
p sych
int ment</w>
in ▁ue</w>
con▁t e▁nts</w>
adv▁ anced</w>
P al
D on▁g</w>
▁wh▁i c▁h</w>
▁gi▁ ven</w>
ten s</w>
te en
spor ts</w>
sign ific
me al</w>
mar k▁et</w>
g▁r ated</w>
f▁i t</w>
expr▁e ssed</w>
b ▁ed</w>
C ▁on
▁or ity</w>
▁a head</w>
sub parag
g▁ roup</w>
di s▁p
da▁ y
chi▁ld re▁n</w>
A tt
▁sup ply</w>
▁l anguage</w>
▁J une</w>
u t▁e</w>
th er▁e</w>
ot▁ h</w>
e▁ mplo
a▁c k
ati o</w>
as n</w>
W o▁r
▁re duce</w>
▁inspec tion</w>
u▁ ty</w>
sho▁ w</w>
li d</w>
in▁ f
e▁r ing</w>
Oc▁t ob
▁s ent
▁m oment</w>
▁for ward</w>
l er</w>
a▁l th</w>
an▁ ks</w>
▁sch ools</w>
x tra</w>
te s▁t</w>
s▁pr▁e ad</w>
s▁i gn</w>
ro a▁d</w>
o▁m atic</w>
ov ered</w>
no▁ wn</w>
min ed</w>
m ach
fi t▁s</w>
f un</w>
expec ta▁
bl em▁s</w>
Sou t▁h</w>
D ef
4 8</w>
2▁ nd</w>
▁condi tions</w>
▁administr ative</w>
▁abo ve</w>
ye▁ ong</w>
s ati
pr ▁ic
oo d
ne eded</w>
n ti▁l</w>
▁u nti▁l</w>
de p▁ar
ap▁pl ▁ied</w>
▁r ound</w>
▁f o
▁f em
▁b ill</w>
▁P l
▁Ch ▁ina</w>
si g▁n</w>
pe o</w>
n or▁thern</w>
li ve▁
consid ▁eri▁ng</w>
cl ▁i
c r▁o
J oon</w>
5 ▁0</w>
▁e xtra</w>
▁con tents</w>
▁acc ordance</w>
tr▁o l</w>
re pe
implemen t▁at▁ion</w>
i tion</w>
f▁i re</w>
b▁e t
T ra
▁o wner</w>
▁exi sting</w>
temp▁or ary</w>
st i▁ce</w>
pr▁o gram</w>
fin al</w>
c t▁
ast y</w>
S t▁at▁ion</w>
D o▁ng</w>
▁2 nd</w>
x ▁
vi deo</w>
k e▁s</w>
h▁o s▁ted</w>
hom ▁e
ex p▁an
Ch ung</w>
▁G er
sta▁r tin▁g</w>
fi re
compan i▁es</w>
2 6th</w>
▁competi tion</w>
▁air port</w>
s▁ mall</w>
o▁ s</w>
i▁ sed</w>
f oo▁d</w>
expl an
am ic</w>
W ave</w>
U.S. -▁
S NS</w>
▁wi fe</w>
▁tra ditional</w>
▁t o▁
▁man ufac
▁be t▁ween</w>
▁R o
ra ised</w>
pr▁i l</w>
on▁ ths</w>
of▁f i▁cer</w>
h ap
ement ation</w>
d own
a▁gr▁e ed</w>
Sh ▁in
Be▁c a▁use</w>
▁ve hicle</w>
▁o us
▁loc ated</w>
▁issu es</w>
▁fi ▁eld</w>
und e▁r
ud y</w>
semicon d▁uc
m▁i l
mo▁ ve</w>
h▁e e</w>
c ro
ang▁ ju</w>
▁nam ed</w>
▁dri ving</w>
wi t▁h
we i</w>
ri▁ ty</w>
pr i▁l</w>
pos es</w>
organiz ▁ation</w>
deci sion</w>
cit▁iz e▁ns</w>
ca▁ r</w>
ag s</w>
Univer▁ sity</w>
▁it em</w>
▁S ta
uni on</w>
ti▁ val</w>
ti▁ o▁n</w>
ref l
per▁ son</w>
gin ning</w>
fi gh
facil▁i tie▁s</w>
consu m▁p
beau▁ti ful</w>
at ures</w>
ac co▁un
W or
Su▁ pport</w>
In form▁a
▁r ural</w>
wo▁r kers</w>
p▁er so▁n</w>
ne st</w>
ir ing</w>
g▁r ap
d ang
Rec e▁ntly</w>
▁me dium</w>
us▁u ally</w>
s▁h ing</w>
sp ▁i
sel e▁c
s m▁a
ro▁ w</w>
on▁ ce</w>
m▁o dern</w>
dur i▁ng</w>
c▁on ▁t
cooper ▁ation</w>
c tive</w>
auton ▁omous</w>
▁N ow</w>
ti n</w>
st y</w>
ch ▁ec
c ross</w>
Techn▁o logy</w>
P▁rov ▁ince</w>
▁e li
sch o▁ol</w>
rece▁ iving</w>
impl eme▁n
de▁vel op</w>
c▁a r</w>
at form</w>
ag ▁ed</w>
L e▁
J▁o seon</w>
t our</w>
s▁o ld</w>
speci a▁lized</w>
m▁ and</w>
iv ered</w>
g▁a in</w>
form e▁r</w>
contr▁i b▁u
2 8th</w>
▁th ▁ose</w>
▁sup pl
▁even ts</w>
▁ent l▁y</w>
▁en i▁ng</w>
▁compl eted</w>
tr ad▁i
t ot
s▁u▁ ch</w>
s▁ ph
sho▁ pping</w>
se▁r v
o▁ ut
n▁o v
g▁o al</w>
a▁t te▁nd</w>
P re▁
▁neg oti
▁T ru
▁201 7</w>
w ind</w>
v▁o l
us band</w>
mi ddle</w>
fe t▁y</w>
a▁ ga
▁reg arding</w>
▁en tr
▁c l▁a
hy ▁un</w>
g le</w>
bir th</w>
Pr▁ov ince</w>
F es
▁w al
▁sign ific
▁h ands</w>
▁h air</w>
me▁mb er▁s</w>
me▁ t</w>
in▁ cre
▁lea der</w>
▁ear l▁y</w>
s▁ ons</w>
re▁ cor
in ▁at▁ion</w>
ch ▁es</w>
ca▁ ll</w>
ME s</w>
▁direc tor</w>
▁cri tici
ser v▁i
possib▁i lit▁y</w>
l▁e ar
f l▁i
di s▁t
dem and</w>
ch ▁o
M▁o st</w>
▁s ea
re▁ ssed</w>
la g</w>
fe ▁el</w>
el ▁d</w>
d a▁ta</w>
ad ver
Ar ts</w>
▁p ri▁ce</w>
▁K y
s▁o cc
r▁e ▁
p▁a ce</w>
p in▁g</w>
fi▁ ve</w>
ev al▁u
bo▁ ok</w>
▁tal ks</w>
▁reve aled</w>
▁a re▁a</w>
▁19 9
s▁u ff
hom ▁e</w>
g lob
di▁vi de▁d</w>
▁v ir
▁s ports</w>
▁p ain</w>
▁b ▁u
dra w</w>
depen▁ dence</w>
commun ▁ic
ca▁p ital</w>
L ocal</w>
B ▁i
&▁ap▁o s;▁s</w>
s▁ cen
oll a</w>
en d▁e
Ta i
G▁ w
G e▁r
▁intro duce</w>
▁auth orities</w>
s▁a y</w>
l▁e g
er ies</w>
eff ect</w>
e k▁
co▁un cil</w>
contri b▁u
bl▁e m</w>
E lec
A▁ gency</w>
▁t rying</w>
▁or d</w>
show ed</w>
re▁s ult</w>
olog ical</w>
offic▁i als</w>
d e▁s</w>
col lec
co sts</w>
J i▁n</w>
▁tim e▁s</w>
man▁ag ement</w>
ke▁e p</w>
inte rest</w>
d▁e vel
di tion</w>
a▁ ving</w>
Gw angju</w>
▁rec ent</w>
▁f und</w>
t▁e ll</w>
se s▁
on ald</w>
n nov
▁i nnov
m▁an a▁ge</w>
ill a</w>
g old</w>
exp▁en s▁es</w>
de sign</w>
be▁t wee▁n</w>
▁r en
per s</w>
m▁i lit
du res</w>
bec au▁se</w>
H ae</w>
Ar▁ ticle</w>
▁spe ed</w>
▁p ▁
▁foc us</w>
▁f ar
▁e lectr
▁M ost</w>
▁&a▁ pos;
▁ tio▁n</w>
st▁ at
p▁ar ty</w>
d▁o ub
a▁t e
L ▁o
▁s ex
▁r e▁l
x perts</w>
w al</w>
si▁mi▁l ar</w>
f▁ir s▁t</w>
D ev
Bus▁ iness</w>
30 th</w>
2 4th</w>
▁sh ▁o
▁e xperts</w>
s▁a l
st a▁t
sent ▁en
r e▁nt</w>
pres▁i d▁ent</w>
ha se</w>
cul ar</w>
▁fl▁o or</w>
▁co ach</w>
w alk</w>
n▁e ws</w>
f▁i ts</w>
c r▁a
a▁c t▁ion</w>
a ster</w>
X i</w>
T A</w>
S ▁er
▁com b
▁charac ter
si▁ tu
po▁ se</w>
pos▁ sible</w>
n at▁iona▁l</w>
c▁h ang▁e</w>
ci se</w>
▁vi ew</w>
▁sub sidi
▁se▁e m▁s</w>
▁i dea</w>
▁P er
w ri▁
w eak</w>
p ▁e</w>
n▁e e▁d</w>
educ a▁tion</w>
dr▁i ving</w>
d ren</w>
a▁ti o</w>
▁t el
▁l ec
ti tude</w>
th or
si▁ gn</w>
inv ol
f ou▁r</w>
ev a▁lu
dis m▁i
ab led</w>
▁w ays</w>
▁n oti
▁cre dit</w>
w▁o o</w>
s▁t able</w>
st▁it u▁te</w>
ex ▁ec
ev i▁
bet ter</w>
Tran▁ sport</w>
▁C entral</w>
s▁t ory</w>
ma int
de▁ m
de os</w>
▁h a▁ve</w>
▁c lub</w>
▁Fin ancial</w>
t▁u res</w>
lo▁ ve</w>
d▁ n</w>
a▁g er</w>
appe a▁r
Sc▁i en▁ce</w>
K w
▁th ▁is</w>
vi▁ de</w>
t▁ og
ra▁ is
mi▁l l▁ion</w>
mea sur
ir ae</w>
g▁ le</w>
for cement</w>
es▁ ts</w>
comp▁ le▁
▁a tin▁g</w>
▁H is</w>
w▁h ▁o</w>
per sons</w>
▁W or▁ld</w>
t▁h e▁r</w>
str ▁i
mil itary</w>
it i▁
ent ure</w>
el▁ derly</w>
bus y</w>
att en
M▁in▁i ster</w>
▁manag er</w>
▁em▁b ly</w>
▁G iv
t▁h e▁
pr o</w>
pl▁a ce</w>
loc▁a t▁ion</w>
li▁ mit
i▁n f
ga t▁ion</w>
et ely</w>
en▁ ds</w>
applic ▁ation</w>
ang j▁u</w>
an im
P op</w>
K o</w>
2 3rd</w>
&▁a▁ pos;
▁v alu
▁sh own</w>
▁May o▁r</w>
rac y</w>
lo ss</w>
i▁t ute</w>
d em▁
Se a</w>
Sam ▁
M ic
De▁ spi▁te</w>
▁po litical</w>
▁o nline</w>
▁Nor ▁th</w>
ssi▁ on
ma▁r ke▁t</w>
m e▁r</w>
l▁i sh</w>
fic ▁at▁ion</w>
ci v▁i
ch ai▁r
b▁o ok</w>
agre ▁ement</w>
▁oper ating</w>
▁me▁ ans</w>
u▁r ch</w>
op en
ic ally</w>
diff▁ic ult</w>
Super v▁isory</w>
S y
Now o▁n</w>
Me t▁ro
▁th os▁e</w>
▁r o▁und</w>
▁cour se</w>
in ks</w>
f▁ re
e▁r ts</w>
cri me</w>
con▁t r▁a
competi tiv
an▁no▁un c▁ed</w>
Ky un▁g</w>
▁th ough</w>
▁c la▁
u ▁al</w>
th ough</w>
re por
of▁f icer</w>
n at▁ion</w>
in depe▁n
h an
fi▁ ts</w>
M r▁
▁pri ze</w>
▁a ward</w>
▁A ir
w el▁
t▁i mes</w>
r▁e duce</w>
pe ti▁
c y
a▁l ed</w>
ag ▁
L a▁
▁tur ▁al</w>
▁stat us</w>
▁r apid</w>
▁cur rently</w>
▁cooper ation</w>
v▁e y</w>
sup▁ port</w>
r▁o w</w>
re plac
is ure</w>
busi▁n ess</w>
G un</w>
▁ta▁ ken</w>
▁r a▁tio</w>
▁diff icul
to▁ur ism</w>
p▁ro per</w>
neces▁s ary</w>
i▁ci pal</w>
vi or</w>
su ed</w>
rev▁i s▁ion</w>
inst▁ al▁led</w>
f o▁ur</w>
er ial</w>
ch▁an ge</w>
S ta▁
▁st▁ art</w>
▁regi on</w>
▁me an</w>
▁al▁ ly</w>
wh ▁y</w>
s▁um mer</w>
s▁t at
r▁e por▁t</w>
ra▁ ising</w>
ep ing</w>
ch em
addi▁ ti▁on</w>
W ed
▁t ot
vi▁ r
vi a</w>
t ;</w>
li▁ mi▁
i▁n cre
insp e▁ct▁ion</w>
eco▁n om
di vi▁
der ing</w>
den c▁e</w>
b a▁t
Y o▁
S ci
201 3</w>
▁se ▁ems</w>
▁rem a
▁d uty</w>
y▁ ang</w>
sh ▁ing</w>
pro gram</w>
n u▁r
h a▁rd</w>
con stitu
a▁n ch</w>
Ord inance</w>
▁we eks</w>
▁st▁ age</w>
▁pl aces</w>
s▁h ow</w>
r▁e view</w>
ri c</w>
n ation
h ow▁e
gr a▁m</w>
comp▁ri▁ sed</w>
bec ▁om
a▁ t▁ion</w>
G ▁i
▁e ar▁ch</w>
▁201 5</w>
t or
sy▁st e▁m</w>
reg ar▁dl▁ess</w>
J▁ i</w>
IC T</w>
▁v al
▁tru st</w>
▁st u
▁po or</w>
▁equi pment</w>
po st
ma kers</w>
il▁ ls</w>
a war
N o▁t</w>
▁ques tion</w>
▁fa ther</w>
x it</w>
rela t▁ively</w>
n▁or mal</w>
fri ▁en
ch▁ anged</w>
c ell</w>
2 2nd</w>
▁inf lu
▁cl▁o se</w>
▁D oes</w>
s▁t a
ph y</w>
i▁ st▁ics</w>
del s</w>
cit▁iz ens</w>
▁tran sfer</w>
w▁h e▁n</w>
w ood</w>
u▁s e▁d</w>
u▁n d
spor tation</w>
in es▁s</w>
d ram
c lose</w>
b▁u d▁get</w>
al▁ ong</w>
Tu be</w>
opi▁n i
l▁ik▁e l▁y</w>
gr y</w>
gi ft</w>
dis cl▁o
cl o▁
ag ▁o</w>
▁st▁ ory</w>
▁me ▁e
▁Th e▁r▁e</w>
y▁o ung</w>
w ▁er▁e</w>
us e▁s</w>
k es
f▁ lic
fi▁n ancial</w>
ch ▁er</w>
T e▁
F ore
E c▁on
A ff
▁wea ther</w>
▁rul ing</w>
▁r ates</w>
▁per cent</w>
▁R iver</w>
sy m▁p
re▁qu ▁est</w>
li a</w>
f▁a mi▁
ch on</w>
c ash</w>
Th a▁t</w>
▁Wh ich</w>
z i▁ng</w>
t ech</w>
sp ect</w>
si dies</w>
pre▁ s
opport un▁i
en▁ter ▁ed</w>
c▁ re▁
a▁ir man</w>
Se un▁g</w>
201 2</w>
▁s ell</w>
▁en▁ ce</w>
ve▁ lo
s ▁ation</w>
p▁ri l</w>
car ▁r
a▁ ses</w>
A ll</w>
4 2</w>
▁b lo
▁H an</w>
ound ation</w>
mo vie</w>
m ic
con st▁ruc
an▁ ing</w>
anno▁un c▁ed</w>
B ▁r
▁bo x</w>
▁any thing</w>
t▁ ow
t yp
t arg
signi fic▁
d ▁es</w>
compl▁e tely</w>
canc el
20 ▁
▁add ress</w>
rov e▁r
n a▁
demon str
b▁u r
a▁ .m.</w>
S e▁c
I N
Da e▁
&ap▁os; ▁ll</w>
▁om ic</w>
▁n ice</w>
tur a▁l</w>
th re▁e</w>
sid y</w>
phot o
it ation</w>
c▁o ff
compen s▁a
a▁c y</w>
ag en▁
adva▁n t▁age</w>
Cha▁ir ▁man</w>
C a
▁u re</w>
▁bi ggest</w>
▁K ang</w>
y▁e ong</w>
ru gs</w>
p p</w>
n dic
k e▁n</w>
f in▁
con t▁r
ati s</w>
ac t▁iv
Gang n▁am</w>
wa▁ ys</w>
suc c▁e
si▁ a</w>
se▁r vi▁ce</w>
ra is
p h</w>
i▁n ▁
boo ks</w>
at▁ or</w>
▁wo▁r ld</w>
▁ter ms</w>
▁requ ested</w>
▁off er</w>
sta▁r t</w>
ou▁t side</w>
mea s▁ures</w>
gr▁e es</w>
e▁x ce▁pt</w>
e▁ med</w>
ec▁on omy</w>
dre w</w>
ci ous</w>
U .
M ayor</w>
▁i ndic
▁high er</w>
▁car ▁ry</w>
w ear</w>
sit es</w>
si l</w>
lo o▁k</w>
li▁ c
kn ow
h ead
for ce</w>
er a▁l</w>
eff i▁cient</w>
cr▁e a▁ted</w>
▁ques tions</w>
▁l unch</w>
▁com pared</w>
▁bre ak</w>
▁M otor</w>
stan▁d ar▁ds</w>
p▁ o</w>
l d
is s▁u
deli b▁er
d ance</w>
Par t▁y</w>
▁s pread</w>
▁po st</w>
▁off icer</w>
▁f ▁i
▁e vi
▁T oday</w>
v ar▁i
s▁tr uc
sta ke</w>
impl ▁e
hol ▁i
d▁e red</w>
O per
▁recommen d</w>
▁m e▁mb
▁fac ility</w>
▁W omen</w>
▁Vi et
rec▁e▁i ved</w>
op▁er a▁te</w>
f▁o rest</w>
b ac
▁Sa udi</w>
▁A lso</w>
▁A ffairs</w>
pa▁r t
ir ▁d</w>
f re▁e</w>
b▁ec o▁me</w>
a▁r rest</w>
Min▁i ste▁r</w>
7 5</w>
1▁ .
▁w ants</w>
▁par king</w>
throu▁gh o▁ut</w>
ro o▁m</w>
lic ▁y</w>
fin ancial</w>
ex ten
an ti
M i</w>
&apo▁ s;m</w>
▁par ▁ty</w>
▁mov ed</w>
▁B u
▁2 5</w>
v▁a lu
i▁n ter
commiss▁i oned</w>
com m▁itt▁ee</w>
bre ak
bet we▁en</w>
▁er ous</w>
▁Spec ial</w>
t▁h i▁s</w>
th▁ ro▁ugh</w>
r e▁ntl▁y</w>
pl a▁n</w>
mi▁n imum</w>
cl ▁ass
adem ic</w>
Pres▁i d▁ent</w>
Gw a▁ng
▁ba g</w>
st ar</w>
ke t▁s</w>
ici o</w>
f▁a m▁i
S T</w>
vis▁i ting</w>
un g▁
th r▁o
su d▁
so▁ o</w>
si▁ t</w>
de ok</w>
de al</w>
d ure</w>
P e▁r
J▁u ng</w>
H▁e alth</w>
H o</w>
E u▁
1 50</w>
▁d au
▁a ging</w>
tt in▁g</w>
prom▁ otion</w>
n atio▁n
l▁ ding</w>
i▁ ving</w>
hist o▁r
em b▁
de a▁l</w>
b▁i ll</w>
bloc k▁
bi▁l l▁ion</w>
P ri
M u
G ▁e
▁g am
▁fal se</w>
▁C up</w>
▁&a pos▁;</w>
us sion</w>
s▁ec ure</w>
s▁ mo
pa▁ id</w>
e▁ ds</w>
Sta▁r tin▁g</w>
Da egu</w>
1▁ 00</w>
▁F und</w>
ut ting</w>
s▁ pread</w>
p▁l aces</w>
il ot</w>
g ang</w>
▁w o▁n</w>
▁every thing</w>
u g▁h</w>
particip▁a t▁ing</w>
om ▁
im portant</w>
an e</w>
ac t▁ually</w>
▁er red</w>
y oun▁g</w>
we ▁e
w a▁nt</w>
st▁ u
l a▁te</w>
d ity</w>
Depar▁t ment</w>
6 00</w>
se▁ l
re c▁
pro▁du▁c ed</w>
distr ▁i
cap ▁a
at ul
Je▁ on
▁opport unity</w>
▁mon ▁ey</w>
▁emplo yment</w>
u▁ n▁
r an▁
popul▁a r▁ity</w>
or d▁er</w>
h ar▁d</w>
P▁ar t▁y</w>
&a pos▁;t</w>
▁institu tions</w>
req▁u i▁red</w>
ref ▁u
pr▁o ble▁m</w>
pa▁r king</w>
pa▁ ce</w>
iz ▁e</w>
gu ar
ga e</w>
e▁ lo
des▁i gn
▁spen d</w>
tic a▁l</w>
s▁ub ▁m
inves▁t m▁ent</w>
intro▁ du▁ced</w>
i e▁d</w>
ha m</w>
g u▁n</w>
b oo▁k</w>
an▁n oun
&ap▁os▁; ll</w>
▁k i▁nds</w>
t ur▁n</w>
sp e▁c
parti▁ ci▁
il ing</w>
▁pur ch
▁6 0</w>
x ury</w>
ver ▁n
th ese</w>
suff ▁erin▁g</w>
infl▁u e▁nce</w>
enviro▁n ment</w>
de▁ o</w>
bu▁ dg
▁t ow
▁r ou
w▁or ds</w>
vi▁ ron
u▁ k</w>
tal ks</w>
s▁ ing
pl a▁y</w>
min ▁u
le ts</w>
c▁ ing</w>
ct o▁r</w>
b lo
Educ ▁ati▁on</w>
Ch a</w>
▁r .</w>
▁N av
t▁ le</w>
t▁ a▁
t old</w>
re ported</w>
inc▁ reas
dire▁c t▁ion</w>
conve▁n i
a▁ ys</w>
Wh e▁n</w>
Un ited</w>
Th ▁is</w>
S elf</w>
C C
▁wh il▁e</w>
▁u ti
▁m ach
▁f lo
▁evalu ation</w>
▁be hind</w>
▁a udi
▁Def ense</w>
wr▁i t▁ten</w>
t▁h ough</w>
st es</w>
ph ▁
d rama</w>
▁t ea▁m</w>
▁sit es</w>
▁ch urch</w>
wh▁i le</w>
we▁ b
un t</w>
un mir
sh ou▁ld</w>
refer red</w>
prod▁uc ts</w>
loc ated</w>
dr▁a wing</w>
▁inst ead</w>
▁In stitute</w>
▁D ong
pe ace</w>
end▁e a▁vor</w>
ec e</w>
d at▁a</w>
a▁ th</w>
F am
▁tr▁i es</w>
▁g row</w>
▁b al
▁b ack
▁Jap ▁an</w>
s▁ a▁id</w>
jo yed</w>
inc re▁
e▁ven t▁s</w>
ex p▁la
evalu ▁at▁ion</w>
e ous</w>
des▁i g▁ned</w>
ch e▁d</w>
a▁n ag
ap▁pl i▁ed</w>
J o</w>
▁d inner</w>
▁co▁ mp
under▁st a▁nd</w>
t a▁r
sh in▁g</w>
ol ▁o
du▁ led</w>
di▁ d</w>
at▁ te▁n
ass es▁s
S D</w>
In te▁r
3 9</w>
▁st udi
▁establi shment</w>
▁cer tain</w>
re▁ sol
pr▁o vi
occ er</w>
it or</w>
ir ls</w>
establ▁i shed</w>
del▁i very</w>
ar ▁ound</w>
Com ▁p
▁rec ord</w>
▁rea sons</w>
▁pass ed</w>
▁low e▁r</w>
▁C or
u m▁
to▁ur ist</w>
tem por
tain ment</w>
re▁ce i▁ve</w>
p▁ub l▁ic</w>
pro▁v incial</w>
pl ▁en
l▁i er</w>
g▁u n</w>
gr ade</w>
emplo yment</w>
c▁he ong</w>
c ▁ur
bec om
ant age</w>
J▁apan ese</w>
Deli ber
Ch▁o i</w>
▁h op
▁f resh</w>
▁diffe rence</w>
▁Q u
▁Fore ign</w>
tre atment</w>
t o▁ry</w>
si ze▁d</w>
grap h</w>
discipl ▁inary</w>
b▁e e▁n</w>
ac h▁i
U▁n like</w>
K▁o r▁e
F ▁r
2 5
▁a ction</w>
▁I ▁t</w>
▁3 rd</w>
u▁n ch</w>
st▁ udi
popul ar</w>
o e</w>
m▁or ▁e</w>
l▁i es</w>
li ze</w>
intro d▁uc
gr▁e atly</w>
distrib▁u tion</w>
character i▁st▁ics</w>
busin e▁ss</w>
b ul
Ch i
20▁1 8</w>
▁v illage</w>
▁kn ow
▁emer gency</w>
▁a r▁
vi▁e w
pres▁i dent</w>
pres ent</w>
p ▁ic
i▁s sion</w>
inv o▁l
a▁t ch</w>
G y
▁pre vious</w>
technol ▁o
s▁up▁ ply</w>
scen e</w>
po▁int e▁d</w>
lo▁ t</w>
inte▁n t▁ion</w>
fl ect</w>
experi ence</w>
es us</w>
cre ate</w>
conf i▁r
con f▁ir▁
Ru▁ssi an</w>
&▁qu ▁o▁t;</w>
▁det ails</w>
▁P ri
to▁ p</w>
st mas</w>
ou t▁h</w>
int ▁er
institu t▁ions</w>
il es</w>
ana▁ly ze▁d</w>
Re p▁ub▁lic</w>
▁wor k
▁t it
▁pres cribed</w>
▁aut om
sh ▁all</w>
pp ▁ed</w>
ou▁t si▁de</w>
ong do</w>
en g</w>
ec▁on ▁omy</w>
A ut
▁o f▁f
▁de▁ ci
▁S inc▁e</w>
men t
i▁n ted</w>
g▁ro▁ und</w>
e▁n t▁s</w>
con nec
O ▁n
▁c en
f▁ fe
b ly</w>
at tr▁ac
Ser▁ vices</w>
Commi▁ ttee</w>
▁tur n</w>
▁pla yed</w>
sp ir
semicond▁uc tor</w>
iz e▁d</w>
it ec
do es</w>
applic ▁at▁ion</w>
I S</w>
▁rel ationship</w>
▁c t</w>
un▁ der</w>
th er▁n</w>
te dly</w>
m ess
ic ken</w>
g ames</w>
c li
c ateg
Se ok</w>
P an
▁s ign</w>
▁qu ar
▁pr ac
▁pic tures</w>
▁m yself</w>
▁inter pre
▁incre asing</w>
▁ch▁i ef</w>
▁c offee</w>
▁Intern et</w>
t▁ ural</w>
trea▁t m▁ent</w>
t up</w>
pl o▁
jo▁ b</w>
it i▁ng</w>
f le▁
ex ▁t
Associ▁ ation</w>
▁ous ly</w>
ud d
t▁ ting</w>
s▁t re
se l</w>
s ma▁ll</w>
s c▁
reco▁ gn
rec ently</w>
indi vi▁
competi tion</w>
b rea▁
and al</w>
Metro▁ poli▁tan</w>
▁vac ation</w>
▁st one</w>
▁ in▁ce</w>
z on</w>
w a▁ge</w>
ong yang</w>
gu i▁d
e▁n ding</w>
b a▁n
au ty</w>
Cent ▁er</w>
▁occ ur
w o▁uld</w>
t▁i ms</w>
si▁ dent</w>
re g▁a
pa▁ren ▁ts</w>
ok ▁
de bt</w>
Reg ul
Cu▁l ture</w>
B▁u san</w>
▁w ▁i
▁hou se
▁compl ex</w>
ur ban</w>
s▁ cre
sc ▁i
ph ones</w>
it i▁on</w>
in ▁es</w>
fa ther</w>
cl▁a ime▁d</w>
bu▁ k</w>
W ash
En viron
▁lo ans</w>
▁a ctive</w>
vul ne▁r
tt▁ le</w>
t ow
sh▁a r
pro p▁o
po ints</w>
ob ▁s</w>
le▁ ar</w>
g▁o v▁ern
c▁h ar▁ge</w>
air ▁s</w>
B ut</w>
A s▁s
▁tr▁e nd</w>
▁par k</w>
▁c ere
ver si
v ▁al</w>
s end</w>
r▁e sc
gi l</w>
ex▁ perts</w>
afte▁r n▁oon</w>
W o▁men</w>
▁b ▁e
▁O f</w>
▁M at
tiv e▁s</w>
c ▁ent</w>
ali a</w>
S▁o cial</w>
Pr ot
O n▁
H ▁all</w>
G▁er man</w>
Fac ▁e
▁t i▁mes</w>
▁J in
po▁ lice</w>
pow ▁er</w>
pay ment</w>
p inions</w>
mea▁sur e▁s</w>
l▁ ong
il way</w>
ign ers</w>
i g▁h
h ic▁
deve▁lo ped</w>
d ely</w>
a▁ l▁
R S</w>
F ▁i
3 ▁r
t▁i o▁ns</w>
tic ally</w>
str▁e sse▁d</w>
pa rents</w>
e▁ p
co▁mpl ex</w>
co▁m p▁an
Au gust</w>
1▁ 2</w>
▁dra wing</w>
▁Th ree</w>
y▁ ment</w>
u▁ sing</w>
th▁ a▁t</w>
s▁ k</w>
s or</w>
ri a</w>
pre▁ pa▁red</w>
p preci
p me▁nt</w>
op ▁e
mi▁n utes</w>
m ass</w>
iv es</w>
di ers</w>
depen dence</w>
ce p
ay ▁or</w>
a i▁r</w>
▁po ints</w>
▁d ong</w>
u▁s ▁ed</w>
t an
su c▁
mo▁n th</w>
men t▁i
gr ou
d▁e o</w>
cooper ation</w>
a w▁a
Att e▁n
▁f ell</w>
s▁how e▁d</w>
s▁e vere</w>
succe▁ss ful</w>
r▁en g
pro▁ blem▁s</w>
pre sident</w>
over ▁
oo▁ ds</w>
ne ung</w>
men ▁t
hi▁ m
for e▁
fi▁ shing</w>
f ▁all</w>
co▁un t▁ry</w>
a▁ uth
1 1
▁mon ▁th</w>
ur ▁s</w>
there of</w>
se qu
pro se▁c
n i▁
k ▁er</w>
k et
hu man
gh ly</w>
fore ign</w>
d l▁y</w>
con sci
c ou▁r
S an▁g</w>
A sian</w>
▁sti l▁l</w>
▁exp and</w>
▁c oo
▁a ppreci
p▁ any</w>
nol o
n clude</w>
▁i nclude</w>
m e▁n</w>
i t▁e</w>
emp▁ lo▁
F C</w>
▁h our</w>
▁T able</w>
y▁ o▁u</w>
sp on
r▁e g▁i
pro▁ cess</w>
pe opl▁e</w>
gn a▁m</w>
f▁ o▁r</w>
en co▁ur
M a▁t
H is</w>
4 3</w>
▁ga p</w>
▁eff orts</w>
▁B e
u me</w>
ta ining</w>
ser▁ vice</w>
oc▁ k</w>
in▁clu▁ de</w>
fa▁ ce</w>
er ve</w>
eb ook</w>
c▁a used</w>
ch▁ar▁ ges</w>
Sh im</w>
S te
Jap anese</w>
E U</w>
B TS</w>
Ad minis▁tr
▁Gang won</w>
y a</w>
si der</w>
s aying</w>
re▁ port</w>
pe▁r form</w>
ju▁ dg
conven ▁ience</w>
co hol</w>
c or▁
M ou▁n
2 9th</w>
▁them e</w>
▁n uclear</w>
▁man age</w>
▁he at</w>
w elfare</w>
u▁l es</w>
s ev
r y
o▁r able</w>
m ely</w>
loc a▁l</w>
h▁o ld</w>
f icial</w>
eve▁r y
de▁ gr▁ees</w>
d ress</w>
b l▁o
ap ore</w>
ad ju
▁t ri▁
▁rea ding</w>
▁gr ou▁p</w>
▁b il
rou ght</w>
reas o▁n
ong nam</w>
gu s▁t</w>
e▁n o▁ugh</w>
cor re▁c
consec▁u tive</w>
▁tra vel
▁go es</w>
▁con fi
▁c ted</w>
▁bro▁ ke</w>
w▁a l
v a▁l</w>
uri ties</w>
ur ce</w>
ti le</w>
the red</w>
ten ▁t</w>
re vol
p▁a ss▁ed</w>
o▁n g▁
hol ▁d</w>
e▁ me▁nt</w>
d▁e puty</w>
dete▁r mi▁ne</w>
Y ▁es</w>
▁wh▁i le</w>
▁s c▁en
▁J in</w>
ti ous</w>
ta il</w>
se▁ lling</w>
ne s▁s</w>
hosp ital</w>
di▁ gital</w>
b▁e t▁ter</w>
au t▁
am ount</w>
Sep tember</w>
Or▁di▁n an▁ce</w>
Ex ▁
D A
&▁a pos▁;
▁ris k</w>
yst s</w>
ter n</w>
sel ing</w>
lo▁ st</w>
ement ary</w>
d ro▁
be gan</w>
appl ▁ic
Secr▁e t▁ary</w>
Ass ▁em▁bly</w>
▁h o▁use</w>
t ouri
sec urity</w>
s il
re▁ sid
reti r▁e
n▁a t▁ure</w>
n et
m▁i d</w>
kinder ga▁r
ili pp
e▁xp ▁ected</w>
e ding</w>
Associ ation</w>
8 5</w>
3▁r d</w>
▁r ed</w>
▁p hy
▁m obile</w>
▁ch ance</w>
▁car ry</w>
▁St ation</w>
w▁ i▁
ok yo</w>
ju red</w>
f▁e long</w>
er▁ gy</w>
constru▁c tio▁n</w>
arm ers</w>
ar ▁t</w>
S un▁g</w>
Ge um
B as
20 20</w>
▁min imum</w>
▁impl ement</w>
▁h ear</w>
y outh</w>
to▁ ld</w>
sy mp
smar t▁
li g
lea der</w>
incr▁e as▁ed</w>
in au
did ates</w>
ch an</w>
acc el
4 9</w>
▁reserv ation</w>
▁me dic
▁fil ed</w>
▁Electr onics</w>
sc a▁le</w>
re▁ ad</w>
r u▁n</w>
in form
i rit</w>
d▁a r
coun ▁try</w>
arti f▁icial</w>
M ▁ot
▁wor ked</w>
sp ite</w>
f ile</w>
cus▁tom er</w>
atur day</w>
ak er</w>
O ctober</w>
▁f light</w>
▁de al</w>
▁Y oo</w>
tr ▁an
sa▁ yin▁g</w>
invest ment</w>
hos▁p ital</w>
hear t</w>
f▁ riendly</w>
ex p▁
emplo yees</w>
con t▁rac
compl eted</w>
app▁e a▁red</w>
C l
1. 5</w>
▁c over</w>
▁Un ti▁l</w>
wor ds</w>
wi▁ n</w>
op▁in ▁ion</w>
iz ing</w>
ac ts</w>
. .</w>
wi▁ t▁hout</w>
p▁a r▁
lo▁ ok</w>
li tig
ju d▁icial</w>
d verti
c e▁nt</w>
an s▁
Ta x</w>
▁per sonal</w>
▁or ts</w>
▁intro duced</w>
tt l▁e</w>
te▁ ll</w>
pur ch▁a
pro▁ je▁cts</w>
m▁a tion</w>
h▁ yun</w>
cor respo▁n
contr act</w>
adem y</w>
J▁u ly</w>
, ▁
▁s ingle</w>
▁S chool</w>
▁M anag
ud den</w>
sen ▁t</w>
ong ju</w>
occ ▁ur
n cluded</w>
▁i ncluded</w>
i▁ gh</w>
f u▁l
expr▁e ss▁ed</w>
exp e▁c
di▁ rec
cri▁ minal</w>
app eared</w>
Cha▁ir man</w>
0 ▁.
▁wa iting</w>
▁2 4</w>
si mul
puni s▁h
n l▁y</w>
mar ks</w>
low ▁ed</w>
equ▁i ppe▁d</w>
e ply</w>
U l
Pye on▁g
In nov
x i</w>
ur o</w>
r ance</w>
manag e▁ment</w>
m ▁er</w>
m m</w>
inc ▁ur▁red</w>
gro▁ up</w>
e▁x ce
diff icult</w>
condi▁ ti▁ons</w>
al ▁e</w>
ach es</w>
Ar▁ tic▁le</w>
▁w inter</w>
▁g irl</w>
si bl▁e</w>
sc▁h o▁ols</w>
resol ▁ut▁ion</w>
p▁r ices</w>
per t</w>
on line</w>
ju d▁g
i▁ss▁u ed</w>
ho▁l ding</w>
he a▁t</w>
e▁xp and</w>
cooper ▁atio▁n</w>
t ext</w>
pr▁o d▁uct</w>
pro po▁rt▁ion</w>
ob jec
guar▁ an
fin anc
d▁ ra
compet▁i tion</w>
Min i
▁a g▁e</w>
▁A sia</w>
w▁ a▁s</w>
sti tu▁
organiz ▁at▁ion</w>
ma▁ ge</w>
la▁ ge</w>
cel l
ap▁ pe
M ong
Cur re▁ntl▁y</w>
▁d own
wor k▁
w e▁nt</w>
sid es</w>
po▁ sal</w>
o▁n es</w>
off i▁ce</w>
m▁i d▁dle</w>
i▁ ted</w>
hi st</w>
h e▁re</w>
e▁n ing</w>
d▁i es</w>
comm u▁n
cl ▁e
▁i d</w>
▁emb ▁er</w>
si ana</w>
p▁ tion</w>
pre▁ ss▁
de partment</w>
c op
▁u pper</w>
▁b an
▁administr ation</w>
r▁e turn</w>
ri g▁ht</w>
re tu▁r
pr▁o cess</w>
li s▁h</w>
k ind</w>
for ▁e
al ong</w>
M yung</w>
Int el
▁s n
▁f a▁ct</w>
▁er al</w>
▁com mon</w>
▁T o</w>
▁N am
x c
s▁t a▁
op▁er ate</w>
m▁a ki▁ng</w>
g▁o t</w>
dd l▁e</w>
▁O r
si▁ an</w>
ou▁t door</w>
n oti
i▁n st</w>
fo▁rm ation</w>
duc ▁e</w>
comm erci
a▁t te▁n
Gyeon▁g gi</w>
▁n et</w>
▁en ted</w>
y or</w>
susp ▁ec▁ted</w>
ron ▁t</w>
ro se</w>
inc i▁al</w>
g est</w>
e▁ qu
condi tions</w>
cit▁iz ▁ens</w>
Educ ation</w>
▁devel op
▁an swer</w>
▁U lsan</w>
si den▁t</w>
s i▁nce</w>
s .</w>
res sive</w>
par ▁ty</w>
pa i▁n
m▁ ot
f ely</w>
e▁m e▁nts</w>
e▁ ved</w>
de▁vel ▁o
b▁i lity</w>
at▁ i▁on</w>
ati▁ c</w>
4 4</w>
v▁i ol
par ▁t</w>
p position</w>
oth e▁r
og s</w>
increas ing</w>
fu▁ ture</w>
exper▁i en▁ce</w>
b e▁l
a▁ti▁ ves</w>
M o▁
7 ▁th</w>
▁s ett
▁e xc
v i▁l
ref le▁c
h▁ a▁ving</w>
f▁ ine</w>
f ou▁n
e▁n ough</w>
ew ed</w>
d re▁
a ▁e
En g▁
▁tran s
▁th re
▁t u▁res</w>
▁indu strial</w>
▁com ▁p
▁a us▁e</w>
▁Wh o</w>
up on</w>
t▁h en</w>
s▁; t</w>
r▁i ght</w>
re stor
gr▁o up</w>
fort un
en t▁i
d▁ro p</w>
announ c▁em▁ent</w>
P I</w>
J u▁ne</w>
&▁apos; ▁t</w>
▁s ale</w>
▁o pinions</w>
▁i or</w>
▁b anks</w>
▁a t▁io▁n</w>
v il▁l
un▁ ded</w>
r▁e lev
rema▁ ining</w>
o▁t s</w>
g▁a n</w>
f▁orm e▁r</w>
b▁e com▁e</w>
E X</w>
▁w ear</w>
▁c aught</w>
▁a tions</w>
w▁ in
ta king</w>
p rec
d ust▁
acc ▁ep
&am p▁;</w>
&a p▁o▁
▁n eve▁r</w>
▁determin ed</w>
wh▁e the▁r</w>
u gg
ti▁ onal</w>
se um</w>
on ing</w>
mb ent</w>
l▁i s▁t
gener ▁ation</w>
g ate</w>
fac ▁ili
eff e▁c
d▁ on</w>
dom▁e st▁ic</w>
c ou▁ld</w>
agre ▁emen▁t</w>
ac i
T X</w>
D y
▁u ▁n
▁smar t
▁shi p</w>
▁lea▁ ve</w>
▁favor ite</w>
▁du ties</w>
▁G e
▁Ci vil</w>
under sta▁n
t ea
on y</w>
ent e▁r
c▁h a▁nce</w>
comp▁e tent</w>
ci dents</w>
ana▁ly▁ sis</w>
ali st</w>
Vi e▁t
S er
4 ▁th</w>
▁s e▁t</w>
▁l ate▁r</w>
th ▁er▁e</w>
rec▁e i▁ved</w>
p▁a st</w>
p▁a ssed</w>
over y</w>
k▁e s
g▁r ad
govern me▁nt</w>
b or▁
administr ▁ation</w>
ab il▁i
Prom▁ otion</w>
▁p h▁
▁organiz ations</w>
▁g roups</w>
▁H all</w>
ve▁rn or</w>
li▁ ce</w>
ing ful</w>
hi b▁i
go es</w>
duc tor</w>
de st</w>
c▁ul tural</w>
cri t▁ic
bui▁l di▁ng</w>
La w</w>
J o▁
G ove▁rn
Dis ▁a
8 8</w>
▁imp act</w>
▁dr unk</w>
▁5 th</w>
wh il▁e</w>
t▁i ona▁l</w>
t elecommunic
s▁t reet</w>
r▁e a▁son</w>
re m▁a
pr▁o blem</w>
ne e▁d</w>
m▁e dia</w>
j oo</w>
g▁en der</w>
e f▁for
conne▁c tio▁n</w>
b▁u rd
Vi▁e t
x am</w>
w▁a r</w>
ti cl▁e</w>
s▁a w</w>
sp o▁rt</w>
r▁e vi▁ew</w>
our self</w>
mp tion</w>
mat ▁e
lit tle</w>
ili t▁y</w>
hosp it
g▁row t▁h</w>
gr ated</w>
fa▁ il
c▁u t</w>
cul tural</w>
ch ▁il
N ot
Min istry</w>
Ch inese</w>
3 ▁0
▁w o▁
▁M in</w>
▁&a▁ pos;</w>
v ity</w>
t▁r uc
i▁ p</w>
is tic</w>
f oot</w>
d▁em and</w>
Me an
▁r oo▁
▁p ass</w>
s▁ quare</w>
s li
re▁qu est</w>
p▁ric ▁es</w>
ou▁ ps</w>
n a
he ung</w>
fu g
d▁e l</w>
de▁ fense</w>
bus▁in e▁ss</w>
ac ting</w>
T u▁r
▁wor▁ ld</w>
▁gr ade</w>
tom s</w>
ti tion</w>
sub para▁
re s▁ul
ph s</w>
off ici
certi f▁ic▁a
c k
activ▁i ti▁es</w>
S C</w>
▁pa▁r ty</w>
▁mon t▁h</w>
▁improv ement</w>
▁P ar▁k</w>
▁K ong</w>
wor▁ kers</w>
s▁i a</w>
super v▁i
sub mi▁
se▁r vic▁e</w>
o▁m an</w>
ne▁ l</w>
m▁ain ly</w>
g▁ ree</w>
enviro▁n m▁ent</w>
eav or</w>
contr▁ib▁u te</w>
at▁i o▁ns</w>
Sc▁h ool</w>
M W</w>
▁pro grams</w>
▁po sitive</w>
▁kn ow▁n</w>
▁hel ps</w>
▁he ar▁d</w>
▁do g</w>
▁com ▁
t▁h i▁ngs</w>
stru▁c t▁ure</w>
r▁i g▁hts</w>
re stric
le ted</w>
et ings</w>
ea ses</w>
cust▁om e▁rs</w>
Y▁e ar</w>
J un</w>
▁s i</w>
▁Uni on</w>
▁Th e
▁&q▁u ▁ot;</w>
y▁e a▁r</w>
th▁ ree</w>
th ▁er
re▁ c▁e
qu▁ar ▁ter</w>
produ▁c t▁ion</w>
o▁t el</w>
i or
et c▁.</w>
en s▁e</w>
do g</w>
c a▁m
bas ▁e
D▁ ong</w>
▁investig ating</w>
▁g ar
▁C o▁m
▁Ab ov▁e</w>
ti▁ ll</w>
tech▁n ical</w>
rep▁or ted</w>
l▁e vel</w>
inst i▁
g irl</w>
docu▁ ments</w>
ati ents</w>
activ▁i ties</w>
M Z</w>
Ju▁ ly</w>
E speci▁
▁t▁i me</w>
▁l ots</w>
tre nd</w>
s li▁gh
r▁i ed</w>
mi ss
me d▁i
incre▁as i▁ng</w>
go▁ t</w>
e▁v e▁n</w>
ac▁c ou▁nt</w>
Jap an
B ae</w>
A▁ l
▁en h
▁c ase▁s</w>
p es</w>
is sion</w>
e du▁c
conven▁i e▁nce</w>
5 3</w>
▁wh ▁er▁e</w>
▁stud ying</w>
▁ori ginal</w>
▁Y ork</w>
ser▁ vices</w>
sch ools</w>
pro s▁ec
pass e▁ng
o▁u ght</w>
o san</w>
m▁e ans</w>
l▁a ti▁on</w>
i de
grad▁u ally</w>
gat▁h e▁red</w>
fe der
er ous</w>
d▁i ed</w>
Emplo▁ yme▁nt</w>
4 7</w>
▁elec tion</w>
x cellent</w>
t▁ wee▁n</w>
r▁ec ord</w>
play ed</w>
l▁oc al</w>
im p
de a▁d
c▁an no▁t</w>
ch▁ang ▁ed</w>
busin e▁ss
agrap hs</w>
S oon</w>
S en
S AT</w>
▁r a▁nge</w>
▁o th▁er</w>
▁f ast</w>
▁e xcellent</w>
▁d ay▁s</w>
▁analy sis</w>
▁Ch in▁a</w>
u▁r y</w>
ta ken</w>
prov ▁ince</w>
ob serv
inc i▁
d at▁e</w>
bel▁iev e▁s</w>
a▁ way</w>
Gy▁e onggi</w>
▁o pposition</w>
▁be e▁n</w>
▁b a▁
▁4 th</w>
t▁a kin▁g</w>
su pply</w>
str i▁ct</w>
say ▁ing</w>
ro wn</w>
res u▁l
o▁th ers</w>
le f▁t</w>
de part
compa▁n ie▁s</w>
a▁r o▁und</w>
an aly
S▁t ates</w>
M un
4 6</w>
▁re ply</w>
▁fem ale</w>
▁com mer
v ote</w>
s c▁a
reg u▁l
p▁ric e▁s</w>
particip ate</w>
low ers</w>
la v
it ors</w>
ha▁ pp
Me▁ dical</w>
Electr o▁n
▁larg est</w>
▁c entral</w>
sh▁o wing</w>
on ju</w>
n▁e e▁ded</w>
l▁o ss</w>
in al</w>
e▁ te</w>
c▁h o
W e▁st
▁pro duc
▁o rial</w>
▁issu ed</w>
▁b ase</w>
t▁ro l</w>
temper a▁t
sen ▁t
se at</w>
mar t</w>
espec▁i ally</w>
cul ▁ture</w>
b age</w>
a▁t ely</w>
at i▁cally</w>
ac ted</w>
S ervice</w>
S a▁
Indon ▁e
G an▁g
▁tim ▁es</w>
▁sh aring</w>
▁re si
▁i m▁
▁P ublic</w>
ter ▁m</w>
r▁e am</w>
pre▁ ss
m ary</w>
le▁ad ▁ers</w>
in o</w>
ild ings</w>
g▁ ram
▁lear ning</w>
▁he althy</w>
▁In du
▁Bus a▁n</w>
sum mer</w>
st ay</w>
ra ft</w>
p▁eri o▁d</w>
pa▁r ki▁ng</w>
mon ▁th</w>
mi▁n u▁tes</w>
de▁ grees</w>
c▁ ree</w>
▁wor d</w>
▁u ser</w>
▁mar kets</w>
▁e xam</w>
▁C an
tr▁u stee</w>
p▁l ac▁e</w>
or▁ gan
mar kets</w>
man u
lo▁ok ▁ing</w>
inte▁r vie▁w</w>
d ▁ation</w>
L abor</w>
Dec lar
▁wor l▁d</w>
▁st▁ ate</w>
▁H u
yo▁ ung
tog▁e the▁r</w>
s▁u c▁h</w>
pl ant</w>
me e▁t</w>
fore i▁gn
ev ents</w>
dist▁ ric
ac ity</w>
D▁i strict</w>
Com munic
▁sec tor</w>
▁sal ▁es</w>
▁regul ations</w>
▁pri me</w>
▁o ugh</w>
wa it</w>
qu▁ic kly</w>
p proval</w>
o dy</w>
li mits</w>
i▁ ous</w>
insp e▁c
inform▁a tio▁n</w>
fe el
cer t▁i
P ort</w>
D e▁c
▁en cour
▁car ried</w>
▁W elfare</w>
▁M ar▁ch</w>
sc▁h oo▁l</w>
i▁ e</w>
g▁o vern
grou ps</w>
gar ten</w>
g olf</w>
a▁b l▁e</w>
C C</w>
6 0
▁en sure</w>
y e▁r</w>
v y</w>
th ings</w>
stud y</w>
s eri
parliam e▁ntary</w>
l ong
gr▁e ss</w>
fo▁r w▁ard</w>
f ail
est er</w>
entertai▁n ment</w>
d d</w>
bec ame</w>
S ▁i
A g▁en
▁wo▁r ks</w>
▁cap ital</w>
▁Se o</w>
▁Prov incial</w>
▁H yun</w>
us ers</w>
u es</w>
tra ining</w>
ru▁ st</w>
happ y</w>
flo o▁r</w>
To▁ur ism</w>
N .</w>
4 ▁0</w>
4 1</w>
▁y ▁ear</w>
▁g ro▁up</w>
▁en j▁oy</w>
▁ea▁r ly</w>
▁busin esses</w>
si vely</w>
sh in</w>
ser▁ vi▁ces</w>
qu ake</w>
ok ▁ing</w>
mani pul
it age</w>
hair person</w>
d▁i sc
cere▁ mony</w>
Bu d▁d
▁stand ard</w>
▁j in</w>
▁gi ft</w>
▁del ivered</w>
▁a dverti
▁S p
▁A tt
s▁a le</w>
sou▁ thern</w>
r▁en t</w>
ro▁v ince</w>
ri an</w>
p▁o wer</w>
m▁en t▁s</w>
fi ▁e
ent▁r ance</w>
be▁ comes</w>
ad ▁s</w>
St▁ ates</w>
S E
Jun ▁e</w>
Consid ▁erin▁g</w>
6 3</w>
▁par ties</w>
▁i ted</w>
▁charg es</w>
▁c ent
▁K or▁e
us in▁g</w>
sch ▁ool</w>
s ing
larg ▁e</w>
co▁n▁ duct</w>
as t▁e</w>
a .m.</w>
D▁i stric▁t</w>
▁re presentative</w>
▁de ▁ems</w>
▁C it▁y</w>
▁20 th</w>
t▁e nd</w>
t mo
re▁ ct</w>
pro▁v inc▁e</w>
mater ▁i
i▁n v▁e
inc▁lud es</w>
f il▁
c▁lo sed</w>
con▁t rac
char▁a c
av es</w>
a e
Pen i▁n
Mr▁ .</w>
▁fam ilies</w>
▁exhi bition</w>
▁e ye</w>
res earch</w>
m in▁g</w>
li ed</w>
ga th
fun dam
clo sed</w>
ass oci▁
Chung c▁heong</w>
▁sum mit</w>
▁st ri
▁or d
▁o ▁
▁en ces</w>
▁a t▁
▁a pproval</w>
un s</w>
t▁ tle</w>
sel ec
re f▁
me d▁ic
m mediately</w>
la▁ p
i▁ ties</w>
h e▁r
c▁h es</w>
circum st▁
c i▁r
a▁c es</w>
an▁ ned</w>
Co▁ un▁cil</w>
Com ▁
▁wh e
▁we ekend</w>
▁tem per
▁sen ding</w>
▁l etter</w>
▁Tru m▁p</w>
pro▁ bl▁ems</w>
prac▁ tical</w>
g ree</w>
el▁ l
c▁o u▁rse</w>
b▁i g</w>
T r▁a
Ar▁t▁ic le</w>
9 2</w>
▁writ ing</w>
▁w el
▁sel ling</w>
▁ch ild
▁a u▁
▁a lo▁ng</w>
w al
ser▁ v
resi▁ dent▁s</w>
f ar
empl▁o yees</w>
cel e▁
am o▁ng</w>
▁stand ards</w>
▁impl emen
▁f ra
▁con sumers</w>
▁O h</w>
p▁ l▁a
per so▁n
p it
m▁a tt▁er</w>
live▁ stock</w>
gn ant</w>
ef it</w>
c▁re di▁t</w>
ca▁ using</w>
br ▁u
b al▁
a▁c ts</w>
approp▁ri ate</w>
an other</w>
F▁ rench</w>
D on
▁s anc
▁prot ect</w>
▁en de▁d</w>
▁Sh in</w>
▁D ay</w>
x th</w>
sec ▁
r▁ais ▁ed</w>
re form</w>
r ack</w>
pres erv
pe▁r cen▁t</w>
man a▁g
instit▁u tion</w>
ic ed</w>
del eg
ati vely</w>
a sures</w>
T▁h ▁is</w>
Commi▁ tte▁e</w>
▁sup▁ port</w>
▁me an
▁i mmediately</w>
▁a bility</w>
▁Th ▁er▁e</w>
▁D istr
ur ▁es</w>
par t▁ic▁i
out sta▁nding</w>
l▁ea▁ der</w>
l ▁s</w>
g am▁e</w>
for▁m er</w>
co▁un t</w>
ba sic</w>
atic ally</w>
J u</w>
▁ma il</w>
▁ch ea
▁D onald</w>
▁201 4</w>
se▁ ss▁ion</w>
re▁gi on</w>
pro▁ jec▁ts</w>
m▁ on▁ths</w>
mo del</w>
f ted</w>
a▁n y
ang ▁u
aga in▁st</w>
a th▁
a is
W ▁o
U zbe
P resident</w>
N ews</w>
H ak</w>
C o▁urt</w>
▁wat ching</w>
▁h ou▁rs</w>
view ers</w>
u ti▁
sy s▁tem</w>
stren▁g th▁en</w>
s qu
m▁an age</w>
j i
ho▁l ds</w>
fam ilies</w>
expl ained</w>
exce▁ ssive</w>
du c▁tion</w>
ci ent</w>
al▁ lo▁wed</w>
ali t▁y</w>
Ordin an▁ce</w>
Ho s▁p
▁st ep</w>
▁requi red</w>
▁N ov
w▁ inter</w>
ur▁i ties</w>
t▁ ative</w>
ro▁n t</w>
re▁sul ts</w>
rec▁eiv e▁d</w>
pe▁r son▁s</w>
o d▁s</w>
ch ang
apar t
ac king</w>
A ▁m
▁Se p
t▁ur ▁e</w>
r▁e v▁iew</w>
nor m
i▁ an</w>
indu s▁tri
ilipp ines</w>
f▁a r
expe▁n ses</w>
du ties</w>
co▁n t▁
W ▁e
Pe o▁ple</w>
M a▁
▁sub way</w>
▁st u▁
▁sor ▁ry</w>
▁sc▁en e</w>
▁r ange</w>
pay ▁
ou ldn</w>
lo▁ wing</w>
l a▁n
ke en</w>
e▁n sur▁e</w>
Prof▁ess ▁or</w>
Alt▁h oug▁h</w>
▁profes sional</w>
▁a verage</w>
▁a rd</w>
ur ants</w>
est ing</w>
est ate</w>
P rime</w>
Feder ▁at▁ion</w>
Ass em▁bly</w>
▁tax i</w>
▁on d</w>
▁a i▁med</w>
▁L ea
ty▁p e</w>
some▁ thing</w>
ra b</w>
n ical</w>
li g▁ht</w>
inten dent</w>
iden t▁i
b ▁all</w>
a▁g e▁ncy</w>
an▁ gnam</w>
A N</w>
▁tic ket</w>
▁g iving</w>
▁Intern ational</w>
▁E very
w a▁r</w>
t ▁en</w>
s▁t u▁
sh are</w>
re▁ si▁
pro▁ vided</w>
pl▁ay e▁rs</w>
ma▁r k</w>
chedul ed</w>
ch e▁s</w>
ve▁ y</w>
un ning</w>
str▁ ongly</w>
ser▁vic ▁es</w>
sc ▁en
re view</w>
oun ger</w>
invest▁ig a▁te</w>
in et</w>
f riends</w>
d or</w>
ch▁a ir
Ga▁n gnam</w>
Consid ▁eri▁ng</w>
8 4</w>
▁sh opping</w>
▁s tra
▁mat erial</w>
wi▁ de</w>
se▁ ason</w>
rul ing</w>
j ang</w>
ho▁ on</w>
f▁a ct</w>
f ternoon</w>
e▁n c▁e</w>
ed▁uc ation</w>
dec▁ re▁ase</w>
c▁ le
a▁t ten
att le</w>
Viet n▁a
G ▁en
C D</w>
Agricul ▁tural</w>
▁h a▁d</w>
▁1 0th</w>
th r▁ough</w>
t a▁tion</w>
s▁h a▁ll</w>
s▁ec o▁nd</w>
resid e▁ntial</w>
ma▁ in</w>
lo o▁
d y
▁respon se</w>
▁Th ose</w>
won do</w>
t▁h e▁re</w>
tu ps</w>
su i▁t
re sign
pl aces</w>
oo▁ ks</w>
occ ▁u
n ation</w>
ll er</w>
hy d▁ro
high er</w>
co▁ st</w>
ch ise</w>
b▁e hi▁nd</w>
Pro sec▁u
▁s erious</w>
v▁i sit
st at▁e</w>
so▁ ld</w>
pa ign</w>
n ▁ec
m▁e t</w>
me▁ ans</w>
f▁ ans</w>
b es</w>
S he</w>
D▁e c▁ree</w>
B i▁
5 1</w>
▁r ob
▁br other</w>
▁an im
▁aga▁ inst</w>
st or</w>
recomm ▁en▁ded</w>
pa s▁t</w>
new ▁s</w>
lau▁n c▁hed</w>
in clu▁
duc e▁d</w>
conveni ence</w>
a▁m a</w>
al▁ ks</w>
W e
R ussia</w>
R a▁
K oo</w>
F▁or m</w>
C ▁i
▁t ▁here</w>
▁pro ces
vi d</w>
pro▁ perly</w>
organiz a▁tions</w>
b▁e ▁came</w>
author▁i ties</w>
app▁ ro▁v
S▁o uth</w>
Ar tic▁le</w>
▁sho▁ ws</w>
▁hap pened</w>
▁f estival</w>
vel ▁y</w>
ub s</w>
p▁o s▁ted</w>
n esday</w>
lo▁ ws</w>
indepe▁n dent</w>
exa▁m ple</w>
cont rol</w>
a▁r ts</w>
U▁n i
L ine</w>
J▁e olla</w>
C o▁l
8 ▁th</w>
&▁a mp;</w>
&ap▁os; ▁m</w>
▁n othing</w>
▁design ated</w>
▁Kore ans</w>
tra▁n s▁
regul a▁ti▁ons</w>
oo d▁s</w>
m om
k e▁r</w>
inte re
im pos▁si▁ble</w>
fel ong</w>
ev es</w>
a▁rgu e▁d</w>
ac▁c o▁r
Ch un
▁t our</w>
▁t ment</w>
▁deliber ation</w>
▁S on</w>
p▁ub li▁c</w>
m un</w>
du▁ stry</w>
diff i▁cul
commem or
Wi t▁h</w>
O ur</w>
▁lim it</w>
▁en▁ ses</w>
shi p
r ich</w>
p▁la▁ yed</w>
occ ▁ur▁red</w>
m el
li▁mi▁ ted</w>
i▁n ess</w>
i▁l ls</w>
e▁ d
ex▁c e
eb all</w>
der ship</w>
M ▁an
D▁a e</w>
▁u p</w>
▁u niver
▁t e▁r</w>
▁st yle</w>
▁o us</w>
▁gu aran
▁c as▁e</w>
▁A bout</w>
t▁ oward</w>
techn▁o l▁ogy</w>
st i▁tute</w>
sh▁ ment</w>
parti▁ci▁ p
j un</w>
in ary</w>
i red</w>
gi ▁es</w>
ex▁p e▁rts</w>
d de▁d</w>
be s▁t</w>
al ism</w>
N▁e w</w>
▁tra▁ de</w>
▁r i▁
▁m et
▁dau ghter</w>
w▁ a</w>
th▁o u▁ght</w>
te es</w>
re l▁i
pe▁ op▁le</w>
pet▁i tion</w>
ex am</w>
emb ▁er</w>
c▁ompl ▁y</w>
certif▁ic▁a te</w>
M i▁n</w>
G overnor</w>
6 4</w>
▁sh op</w>
▁l ived</w>
▁bir th</w>
▁Sup port</w>
wr ong</w>
viol ▁at▁ion</w>
pr▁e dic
pro▁ ject▁s</w>
perfor▁m an▁ce</w>
f ut
ex▁per ▁ts</w>
d▁ a</w>
diffi▁c u▁l
coll abor
ch en</w>
b▁e ing</w>
as an</w>
S▁ i</w>
J ul▁y</w>
F ree</w>
▁wor ▁k</w>
▁war m</w>
▁ti red</w>
▁t r▁u
▁Sh in
▁N am</w>
▁ i</w>
y cl
po▁ li
pos▁i tio▁n</w>
lea ve</w>
f▁o ur</w>
eff ic▁i
c▁h o▁
custom ers</w>
T a▁e</w>
Or▁di▁n ance</w>
Foll▁o wi▁ng</w>
▁it self</w>
▁e x▁
▁d ram
represent▁ at▁ive</w>
pro▁vi des</w>
pa▁ ss</w>
o▁r der</w>
ot ic</w>
onom ous</w>
f ric
de▁ spi▁te</w>
Y un</w>
U▁n li▁ke</w>
Am ▁er
▁struc ture</w>
▁jud ge</w>
▁A gency</w>
t ask</w>
s▁e l▁
r▁e p▁or
reas on</w>
pl ans</w>
g▁n am</w>
coun ▁
ci▁ ties</w>
▁u sual</w>
▁sk ills</w>
▁r ain</w>
▁lo an</w>
▁i de</w>
▁f air</w>
▁e p</w>
▁a tmo
▁a tes</w>
temper▁a ture</w>
rea▁ m</w>
l se</w>
is▁ ter</w>
impor▁t a▁nce</w>
de▁ cl
a▁n imal</w>
a es
Br▁i tish</w>
▁w alk</w>
▁sam ple</w>
▁par t
▁giv es</w>
▁a g▁ain</w>
w ▁are</w>
so▁ci ety</w>
se▁c tor</w>
play ers</w>
pa▁r ties</w>
n ar
l t</w>
ili ti▁es</w>
e▁ men
co▁nt ent</w>
ben e
ass ▁i
Se ong</w>
Headqu a▁r
Co▁m mi▁ttee</w>
▁sa fe</w>
▁f requ
▁att end</w>
▁Y ang</w>
▁Gen eral</w>
▁F e
▁De partment</w>
wi▁ t▁h</w>
v o▁l
t▁h rough</w>
s▁ ue</w>
rou gh
par e▁d</w>
p a▁t
o▁m ic</w>
mem or
lea de▁r
la un▁
k▁ i▁ng</w>
im▁ pl
gov▁ern ▁or</w>
g u▁st</w>
exam ▁in
d▁uc ed</w>
d op
ce▁n tr
b aby</w>
a▁p pe
Unive▁r si▁ty</w>
▁me al</w>
▁loc a▁l</w>
▁a re▁as</w>
▁a partment</w>
y▁ le</w>
x ▁p
w ned</w>
th▁e re
te▁ ch
so ft</w>
ott om</w>
n ings</w>
gov▁ern or</w>
du als</w>
a▁l most</w>
a▁ ds</w>
Pr▁ov i▁nce</w>
▁re ferred</w>
▁o ▁ut</w>
▁hel ▁d</w>
▁hav en</w>
▁J ustice</w>
s▁a yi▁ng</w>
suc ces
re turn</w>
re s▁
ra▁p idly</w>
p ack
o▁p s</w>
n atu▁r
lan d▁
com▁p an▁y</w>
com▁ po▁sed</w>
E con
B raz
An a▁ly
A nd</w>
▁jo in</w>
▁e x▁p
we ▁ek</w>
r▁e li
po▁ licy</w>
mov ▁e</w>
in fo▁r
gu k</w>
deve▁lo▁ ped</w>
class ▁i
F rom</w>
B are
▁s ▁t
▁m ot
part▁ic▁i p
o▁pen ▁ed</w>
on e▁s</w>
develo▁p me▁nt</w>
ap▁ pe▁
▁g r▁a
▁f o▁
▁cri sis</w>
v ic▁
st ores</w>
spec ul
spe ed</w>
r▁ i</w>
pro▁v in▁ce</w>
pro▁ mot
pre▁ss▁ ure</w>
i▁n c▁ome</w>
in k
in e▁s</w>
ad▁v a▁nce</w>
H ▁i
Gov▁er▁n or</w>
▁w▁h o</w>
▁pla ying</w>
▁ic al</w>
▁fol low</w>
▁consi dered</w>
▁chec ked</w>
▁Gr and</w>
▁F ir
▁B y</w>
y ▁er</w>
x pressed</w>
w▁ rit
th i▁n
st i▁c</w>
ss in▁g</w>
r▁a n</w>
res ear▁
r a▁n</w>
mo bile</w>
indu▁ str▁y</w>
h ear</w>
ac ked</w>
M em
5 6</w>
▁th inking</w>
▁e xpressed</w>
▁coun cil</w>
u▁ gh</w>
th ▁y</w>
sy s▁t
sel ▁ect▁ed</w>
pub▁lic ly</w>
in▁t e▁n
il i▁ty</w>
form ing</w>
e▁ ver</w>
ec▁on o▁my</w>
d▁u ce</w>
dis▁a bled</w>
bas is</w>
Y ou▁ng</w>
T eam</w>
1▁0 ,000</w>
▁w e▁
▁n etwork</w>
▁arri ved</w>
▁Par t▁y</w>
sy n
sh ot</w>
re▁c tor</w>
re ve▁
prot e▁ction</w>
pro perly</w>
ound▁a ti▁on</w>
me a▁ns</w>
f▁i lle▁d</w>
en ▁a
clud es</w>
b▁i l
a▁p pl
C T</w>
8 00</w>
▁in gs</w>
▁b at
sh▁a ring</w>
sh ap
proce▁ss ing</w>
oth ly</w>
offic▁i ally</w>
oc r
l▁ o▁
i▁ cial</w>
i g▁n
h▁ n</w>
histo▁r ical</w>
T ra▁
In ter
G o</w>
F ur
B ri
7 2</w>
▁w oo</w>
▁sur vey</w>
▁d est
▁communic ation</w>
▁S un</w>
un de▁r</w>
t▁ ook</w>
s▁e o</w>
suppo▁r ting</w>
ph arm
os u</w>
mat erials</w>
l i▁n
cri▁ ter
bro ad</w>
br and</w>
ar t▁ic
sk y</w>
proce▁ dur
pp in▁g</w>
jo in</w>
i▁l s</w>
fin a▁n
expen d▁i
empl▁o ye▁es</w>
du▁ le</w>
ct ress</w>
b in</w>
adver t▁i
Y▁ ong
Off i▁ce</w>
▁shar p</w>
▁oft e▁n</w>
▁l i▁m
▁g as</w>
▁be gin</w>
▁I sland</w>
▁F ac
w▁om en</w>
un ▁m
t▁h ing▁s</w>
t t▁ing</w>
stren▁g then</w>
sta▁r ting</w>
sk ills</w>
pl e▁as
pa ssed</w>
p ▁en
lo▁c ated</w>
li days</w>
il ▁ed</w>
g▁ roups</w>
ev ▁a
en ough</w>
e sia</w>
d ▁en</w>
coun▁tri ▁es</w>
at o▁r</w>
anc ing</w>
a id</w>
I s</w>
I l</w>
▁p atients</w>
▁mo▁ ved</w>
▁go▁ in▁g</w>
▁e ating</w>
▁compl ete</w>
▁arri ve</w>
▁M o
▁A lon▁g</w>
▁7 0</w>
▁201 9</w>
u a▁l</w>
ti▁ c</w>
t e▁n</w>
s▁t u
s▁e nd</w>
ss▁i a</w>
p▁ ond</w>
low i▁ng</w>
k▁e ts</w>
eco▁n omy</w>
dra wing</w>
ci p
ch▁an▁g ed</w>
V ▁
V ol
Pr▁e sid▁ent</w>
K ia</w>
9 5</w>
7 0
▁tran sl
▁lea ding</w>
▁h usband</w>
▁8 0</w>
w ook</w>
u▁ red</w>
r▁e tu▁rn</w>
r▁e l
p▁l es</w>
per fo▁rm
o lic</w>
impl ▁ement</w>
fur ther</w>
cou▁n tr▁y</w>
ch an▁ge</w>
bu il
atis fac
ac▁coun t</w>
Nov ember</w>
Ge un</w>
D o▁ng
A ir▁
▁i e</w>
▁hol ding</w>
▁h ea▁
▁disc uss</w>
▁di ed</w>
yn asty</w>
ta t▁ion</w>
s▁a f▁ety</w>
sid e▁nt</w>
r▁e n</w>
ll ▁s</w>
ll a</w>
inter pre
inte g▁rated</w>
f▁ ind</w>
expen ses</w>
elec tions</w>
disab il▁i
conserv ▁ative</w>
c ause</w>
N o
Distr ict</w>
C ar
5 7</w>
▁per form</w>
▁pa s▁t</w>
▁f▁i led</w>
w▁h il▁e</w>
ver sity</w>
so li
s c▁re
partici▁ pan
organiz ation</w>
f re▁qu
di ents</w>
b ac▁k
Y on▁g</w>
We▁st ern</w>
▁wat ▁er</w>
▁typ es</w>
▁o pened</w>
▁n o▁
▁l o▁c
▁gui de</w>
▁f un▁ds</w>
▁e m▁ber</w>
vi ews</w>
qu ickly</w>
pur▁ ch
p ons</w>
m att
h al▁f</w>
a▁ri ous</w>
V s</w>
C▁h o</w>
▁rece iving</w>
▁a ctor</w>
▁C orpor
▁C ol
u ce</w>
t▁a ined</w>
s▁i ve</w>
p▁h ot
pr▁o ce
g ar</w>
em▁ plo
d▁e f
dir▁ec ▁tly</w>
b▁r an
a▁n ▁
au to</w>
D a▁e</w>
▁wat e▁r</w>
▁tea m▁s</w>
▁sp ent</w>
▁eff ici
tur ned</w>
s▁a y▁ing</w>
sche▁ du▁led</w>
re▁ tary</w>
pp ▁or
m er▁
ind ow</w>
f▁or ced</w>
e▁r gy</w>
disp a▁t
c▁h urch</w>
c▁h ec
con f▁lic
broadca▁ sting</w>
be fo▁re</w>
al ysts</w>
al low▁
N E
M oo</w>
Au str▁a
8 6</w>
▁ma▁ kes</w>
▁h ot
▁R ural</w>
▁A dministr
▁7 th</w>
ur e▁s</w>
t▁ ment</w>
r▁e ss</w>
ri or</w>
pr▁o duc▁t</w>
othe▁r wise</w>
occ up
l ▁ec
ingre d▁i
giv en</w>
f yi▁ng</w>
eri a</w>
bu ▁il
bri ▁ef
a▁ ut
at t▁rac
and ▁s</w>
ag r▁e
K a▁ng</w>
3 ▁.
1▁ 6</w>
▁we bsite</w>
▁bet we▁en</w>
▁a e</w>
▁a dde▁d</w>
▁S mall</w>
▁B ri
ur▁ ch</w>
u ti▁on</w>
s▁how ▁ed</w>
su▁ ff
por ary</w>
l derly</w>
im es</w>
f r▁a
con struction</w>
b ors</w>
Min i▁
Ass oc▁i
▁particip ated</w>
▁p er▁
▁fal ling</w>
▁c ha
t▁ar get</w>
ro oms</w>
res ▁ear▁ch</w>
po lit
on ▁ed</w>
mul ▁ti
me se</w>
l▁e t▁ter</w>
lin ▁es</w>
in suff
hi c</w>
g▁u e</w>
circum sta▁n
A mb
tre at▁
su pp▁
si▁ ze</w>
san c▁tions</w>
o▁n t</w>
min ary</w>
lo▁ oking</w>
j▁o bs</w>
il l▁
gr▁a ms</w>
gin s</w>
g e▁s</w>
e▁ven ▁t</w>
establi shed</w>
diff e▁re▁nce</w>
In st▁itu▁te</w>
Associ▁ at▁ion</w>
A gency</w>
▁pro ceed</w>
▁h ea▁r
▁direc tion</w>
▁Y oon</w>
▁Mon day</w>
▁M ot
s▁ec tor</w>
s▁ un</w>
soc i▁al</w>
pl▁en ary</w>
pe▁n sion</w>
fes t▁iv
f ill</w>
ea▁ ce</w>
do▁ ll
di sh</w>
c tual</w>
ble▁ ms</w>
bi o</w>
ati on▁
al og
▁th▁ ree</w>
▁po li
▁c h▁ar
▁1 ▁
st ag
s un
n um
manag ▁emen▁t</w>
it ems</w>
h u▁s
f▁u nd</w>
du▁c ts</w>
desig▁n ated</w>
c ar▁e</w>
b serv
N a▁
8 0
▁w o▁men</w>
▁G im
wi▁ thin</w>
sh i</w>
s c▁o
ro pe</w>
pa in▁t
p .▁m.</w>
li▁mit ed</w>
ledg ed</w>
larg est</w>
ij ing</w>
e z
dir▁ec t▁or</w>
de▁ l</w>
criti▁ci z▁ed</w>
busin esses</w>
ang won</w>
H ol
Dev e▁lo
▁indivi dual</w>
▁en tru
▁e se</w>
t age</w>
s▁up p▁ly</w>
spec ted</w>
s even</w>
le d▁ge</w>
k g</w>
h▁o use</w>
g ers</w>
f▁ami▁ ly</w>
eas ily</w>
di e</w>
c▁a ll</w>
ba g</w>
att ached</w>
ad ▁e
S▁ ports</w>
6 8</w>
▁sim ple</w>
▁p ilot</w>
▁bus y</w>
▁Mar c▁h</w>
▁H o
▁ on</w>
v e▁rs</w>
v ement</w>
t▁h e▁y</w>
tu red</w>
susp e▁ns▁ion</w>
sc▁h oo▁ls</w>
r u▁l
prov ed</w>
pre f
pen s</w>
ex ▁i
e t▁s</w>
c▁ hai▁rman</w>
ch▁ anges</w>
ar in▁g</w>
ali an</w>
▁uni que</w>
▁st reet</w>
▁st or
▁govern ments</w>
▁end eavor</w>
se▁ ok</w>
pro▁ po▁sed</w>
is t▁ry</w>
i er</w>
h▁e a▁d</w>
en joy</w>
d ead</w>
c▁oun ty</w>
broad ca
b e▁d</w>
L oc
In stitute</w>
H wang</w>
▁w a▁ter</w>
▁sol ▁ve</w>
▁p ack
▁it age</w>
▁fun ction</w>
▁a fternoon</w>
vi▁c t▁ims</w>
u ters</w>
t▁ oo</w>
m▁ilit ary</w>
me di▁c
g th</w>
ea ker</w>
conf e▁re▁nce</w>
bi▁l ity</w>
ap p</w>
ab road</w>
1▁ 9</w>
▁v o
▁ra i▁se</w>
▁li▁ ves</w>
▁L a
▁J ang</w>
ver ific
t▁h ree</w>
str a
o▁r k</w>
ot▁ o</w>
organiz ations</w>
j oon</w>
im me▁di
fa▁m ily</w>
compet▁i tio▁n</w>
a▁ fte▁r</w>
ac tu
▁re ality</w>
▁mor ▁e</w>
▁fol lows</w>
▁do or</w>
▁cont roversy</w>
▁cere mony</w>
▁a ctual</w>
▁F i
st▁ a
si a▁n</w>
s a▁n
rec ord</w>
r a▁nt</w>
n de▁r</w>
▁u nde▁r</w>
dev▁e lo
co▁ur se</w>
cl ▁early</w>
ci ties</w>
as▁ sa▁
ab ▁ility</w>
St ate</w>
Of▁f ice</w>
K▁or▁e an</w>
▁swe et</w>
▁re fund</w>
▁mat ter</w>
▁con ▁t
w▁i▁ thin</w>
vi d▁ed</w>
t▁h ing</w>
pres▁i de▁nt</w>
o▁b tain</w>
o ol▁s</w>
m▁u sic</w>
metro po▁lita▁n</w>
c▁h ing</w>
cour se</w>
a▁n ▁ce</w>
ann er</w>
a w▁ay</w>
S▁ch ▁ool</w>
2. 5</w>
▁res ources</w>
▁r e</w>
▁par t▁y</w>
▁de▁ ath</w>
▁comp uter</w>
▁a me</w>
▁Wh e▁n</w>
▁T ra
rup tion</w>
reve aled</w>
res ult</w>
pr▁o ce▁ss</w>
o▁ pl▁e</w>
l▁o ve</w>
k▁e y</w>
im chi</w>
f▁ir▁ st</w>
ex p▁eri
ear ing</w>
distr i▁
citi▁z ens</w>
ch ul</w>
S in
B ro
▁shi pping</w>
▁r ol
▁analy zed</w>
y e▁rs</w>
w▁o uld</w>
s▁t ance</w>
pre vi▁
per ▁ty</w>
i▁n co▁me</w>
g▁u st</w>
gu res</w>
f▁am▁i ly</w>
f ru
electr ▁ic
b▁ec a▁me</w>
Th ere</w>
C ▁ul
▁tran sportation</w>
▁ri g▁ht</w>
▁n in▁g</w>
▁fac tory</w>
▁S ung</w>
tr u▁e</w>
susp i▁ci
pro je▁ct</w>
pl om
n ation▁al</w>
min ation</w>
lu tion</w>
ic ▁t</w>
gra▁ du
f▁i ve</w>
fi▁r m</w>
ele▁c tr
coun t▁ri
b use</w>
atmo s▁ph
Ce▁nt e▁r</w>
5 ,000</w>
▁wom e▁n</w>
▁s ▁et</w>
▁s un</w>
▁li brary</w>
▁W ill</w>
um i</w>
s ▁ers</w>
s l▁o
po ol</w>
ma▁nag er</w>
j o▁ng</w>
it tee</w>
ha▁ ven</w>
f arm</w>
di g
co▁mpan ▁ies</w>
ch a
Pro secu▁
J▁ap a▁n</w>
B ar
A l▁
▁won der</w>
▁est ate</w>
▁com pen
▁bro ke</w>
▁& amp;</w>
x e▁d</w>
re▁sul ▁t</w>
pp i▁ng</w>
ot a</w>
fam i▁ly</w>
e▁n ti▁
ed om</w>
d▁ re
compl▁e t▁ion</w>
ati▁ on
ad ▁o
acc ount</w>
Ro ad</w>
D o
Ch ▁o</w>
8 7</w>
1▁ 4</w>
▁s ▁h
▁impl ementation</w>
▁en tered</w>
▁A ir</w>
▁0 ,00▁0</w>
z en</w>
th▁o ugh▁t</w>
ta▁ in
ser▁vic e▁s</w>
re ality</w>
pr▁o vi▁de</w>
prosec ution</w>
preve▁n tion</w>
po▁ lic▁e</w>
maint a▁
li▁ ve</w>
i▁d e▁nce</w>
e▁ ws</w>
ep er</w>
do▁ or</w>
d o▁n</w>
co▁mpan ies</w>
condi▁ tio▁ns</w>
comp▁ la
ci an</w>
b▁a se</w>
Inform▁a tion</w>
Con stitu
▁star ting</w>
▁J esus</w>
▁H w
vest ment</w>
t▁ur n▁ed</w>
t▁ alk</w>
ret▁ur ▁ned</w>
res p▁
pro▁ mo▁t
pl▁a stic</w>
f▁e ll</w>
es t▁s</w>
b▁a n</w>
a▁d v
au dit</w>
air ▁
Sing ▁a
M▁i ddle</w>
I D</w>
E a▁r
▁sen ior</w>
▁pre ven
y friend</w>
w▁a ter</w>
wo▁rk er▁s</w>
u▁ ps</w>
s▁p h▁ere</w>
res ea▁r
pe▁ri o▁d</w>
lo▁c al</w>
lec ts</w>
g ment</w>
fem ale</w>
e▁ven ts</w>
d▁a i</w>
M er
Jo b</w>
Be▁c ause</w>
5 9</w>
▁si ster</w>
▁confir m</w>
▁acc ep
▁W o
▁S i
▁P re
us sian</w>
un cer
tic es</w>
th o▁r
situ ▁atio▁n</w>
si den
s m▁o
ne ▁e
k e▁y</w>
in di▁c
fi▁n ally</w>
as s▁
adv an▁t
S▁e o</w>
Py on▁g
P r▁i
M ▁r.</w>
Ch a▁ng</w>
▁show ▁s</w>
▁high est</w>
▁condi tion</w>
s e▁rs</w>
popul ▁at▁ion</w>
ot▁ s</w>
ot ed</w>
lo▁ g
it▁ tee</w>
f an▁s</w>
d▁e m▁and</w>
M u▁
Ind▁u stry</w>
2▁ .
▁pre ssure</w>
▁expl ain</w>
▁evi dence</w>
▁every one</w>
▁co s▁ts</w>
▁ci ties</w>
y▁e a▁rs</w>
un▁ dr▁e
und ▁er
t▁h o▁ugh</w>
t▁h east</w>
tra▁n sfer</w>
su ▁it</w>
sta ff</w>
r ot
n cident</w>
▁i ncident</w>
ma▁n a▁ged</w>
lec ting</w>
doc▁u ment</w>
de si
c▁a p
cooper ▁ative</w>
ci tiz
ch▁a se</w>
b▁e tte▁r</w>
am ed</w>
P revi
Con stru▁c
1▁ 8</w>
▁rem ember</w>
▁p ar▁
▁inten ds</w>
▁est ▁ed</w>
▁dri ver</w>
▁d o▁
vari o▁us</w>
ur▁ se</w>
pre fer
our n▁a
op ening</w>
l bum</w>
g ▁es</w>
direc t</w>
d ings</w>
con duc
com▁pl ete</w>
c m</w>
block▁ chain</w>
am en▁d
a res</w>
H▁a ll
6 2</w>
▁w er▁e</w>
▁ro yal</w>
▁bas is</w>
▁M ed
v▁e l</w>
t▁ici s▁m</w>
t o▁t
sum m▁it</w>
sec ur
rece iv
of▁f ic▁e</w>
mon it▁
lymp ics</w>
i▁n te
int ▁er</w>
herein after</w>
g one</w>
f▁a mil
fo o▁t
equi▁p ment</w>
dul e</w>
ch ▁ing</w>
b an
a▁l s▁o</w>
an▁g ju</w>
Atte▁n t▁ion</w>
6 ▁th</w>
▁them selves</w>
▁tal king</w>
▁grad u
▁est e▁d</w>
▁a te▁d</w>
▁a lbum</w>
▁H o▁use</w>
y u
v▁o l▁u
un▁dr▁e ds</w>
trav ▁e
tog▁e ther</w>
sec retary</w>
sati sf
s op
recogn ▁i
rap▁h s</w>
ran k</w>
r a▁t
p▁la▁c ed</w>
por e</w>
p ite</w>
man s</w>
l▁e dg
jo▁ in</w>
inev i▁t
id ol</w>
dec i▁
as▁ ure</w>
ar▁ m</w>
acqu a
N ationa▁l</w>
Dec ember</w>
8 9</w>
5 4</w>
▁occ ur</w>
▁mon e▁y</w>
▁iz ing</w>
▁g r▁o
▁con centr
▁a gricul
▁S i</w>
v▁e ly</w>
m▁o stly</w>
m▁id d▁le</w>
je o▁n</w>
h▁ a▁s</w>
gui de▁
f▁u t▁ure</w>
cont▁inu ed</w>
Fi▁n ance</w>
Cul ▁ture</w>
Corpor ▁ation</w>
Commi▁ ssi▁on</w>
B o▁
▁vic tims</w>
▁pro perty</w>
▁hea ds</w>
▁ch oose</w>
ul ti
secr▁e tary</w>
res ear
re p
pl▁ay ers</w>
n al</w>
ic ▁ul
ha vior</w>
ess ment</w>
difficu▁l t▁ies</w>
d ry</w>
cos m▁e
P C</w>
▁wor ry</w>
▁u k</w>
▁t ▁a
▁st ores</w>
▁o m</w>
▁li▁m it</w>
▁intere sting</w>
▁institu tion</w>
▁1 5th</w>
▁1 1th</w>
pro m▁i
per▁c ent</w>
our ▁s</w>
mat e▁r
lo▁ok i▁ng</w>
li kely</w>
la ws</w>
i▁ s▁
fes▁tiv al</w>
d r▁
c oo▁
b lo▁c
b ar
atte▁n tio▁n</w>
aliz ▁ation</w>
K ak
▁play er</w>
▁n ov
▁h o▁
▁1 8th</w>
v▁i ty</w>
t▁e ch
tra▁ in▁ing</w>
tra di
su sta
s inc
ro▁ le</w>
o▁r ds</w>
mis ed</w>
l▁u e</w>
dis co▁
be in▁g</w>
a▁ ke</w>
ap▁ po
W ▁i
I C</w>
E ar▁
▁ve hicles</w>
▁compl a
▁cla im</w>
▁Hi gh</w>
▁H otel</w>
stat ▁em▁ent</w>
ra e</w>
n ter</w>
mar▁ ket</w>
l a</w>
i▁m um</w>
in▁i tial</w>
da ily</w>
co▁nt ▁ent</w>
colle▁c t▁ion</w>
chil▁d ren</w>
a▁t el▁y</w>
a▁l way▁s</w>
ap ▁o
am ing</w>
S u</w>
Rul es</w>
Pol icy</w>
I sland</w>
Dir▁ec t▁or</w>
5 8</w>
▁sp▁e ed</w>
▁se at</w>
▁k inds</w>
▁U l
▁Pe ace</w>
vi▁ se</w>
t▁h a▁nks</w>
ti fied</w>
sec re
prosec ut▁ion</w>
pre▁vi ou▁s</w>
pres e▁n
p i▁
j▁ ong</w>
en h
cent ▁er</w>
bre ak</w>
bo d▁y</w>
ab▁i li▁ty</w>
So cial</w>
M ▁y</w>
J▁ ong</w>
▁tur ned</w>
▁show ing</w>
▁sal e▁s</w>
▁pl a▁n</w>
▁l ab▁or</w>
▁emplo yee</w>
▁b ed</w>
▁8 th</w>
x ercise</w>
vis▁i t</w>
v ari▁
tro▁ l</w>
t ex
s▁ ter
re▁ li
pres en
p ush</w>
m▁un ity</w>
it self</w>
inten ance</w>
h yeon</w>
f▁ low</w>
exp ir
comp▁le▁ ted</w>
ch o▁
as▁ ing</w>
app ear</w>
activ▁i tie▁s</w>
Jo seon</w>
6 6</w>
▁s ongs</w>
▁s i▁gn
▁e xercise</w>
▁as▁ ked</w>
vi se</w>
t o▁n</w>
st at▁
pr i▁n
m▁a▁ king</w>
it ment</w>
i de▁
devel▁o ping</w>
cl as▁
ca su
In t▁er
Da▁e jeon</w>
20 10</w>
▁lear ned</w>
▁en ▁ces</w>
▁ear c▁h</w>
▁bur den</w>
▁bo▁ ard</w>
▁&▁ qu
v a▁c
t▁i on▁al</w>
t or▁y</w>
st ation</w>
o▁ff ic▁e</w>
m▁e et</w>
lo v▁e</w>
k i▁
is ▁e</w>
g iv▁e</w>
em▁en ▁t</w>
em ot
In st▁itute</w>
En gine
B are▁
6 1</w>
3 ,
▁the re
▁r unning</w>
▁pro duced</w>
▁P ower</w>
▁Ass ociation</w>
volu▁n teer</w>
ti t
mit▁ tee</w>
li▁ ght</w>
let es</w>
d▁ one</w>
coun ▁tr▁ies</w>
cont ent</w>
ca reer</w>
b ably</w>
a▁r ti
ann▁o un
Sa fety</w>
J ▁in</w>
6 7</w>
▁s pa▁ce</w>
▁e lse</w>
s▁ ly</w>
ser vi▁ce</w>
separ ▁ately</w>
reli▁ gious</w>
r oun
l▁a u▁nch</w>
hosp ▁it
examin ▁ation</w>
distr ict</w>
c▁ les</w>
consid ▁ering</w>
attra▁c ting</w>
M e▁x
▁se em</w>
▁ra ising</w>
▁ho liday</w>
s▁ cor
st▁ ri
stom s</w>
spec i▁al</w>
so▁ ur
pro duction</w>
pos▁i ti▁on</w>
op▁ s</w>
m o</w>
har m
h w▁an</w>
for t</w>
der ▁
den uc
con fi▁
c a▁rs</w>
author▁i ti▁es</w>
activi▁ ties</w>
P yeong
▁phot os</w>
▁lo ss</w>
▁de si
▁ch all
▁ass et</w>
▁a .m.</w>
▁Ma jor</w>
▁L G</w>
▁Gre en</w>
▁Gang nam</w>
u si
spo t</w>
sh o▁r
run s</w>
ref ul
p▁a ying</w>
or able</w>
l▁a bor</w>
lu gg
li▁ st</w>
li zed</w>
kinder g▁ar
g n▁
ex ▁tre
en ty</w>
denucleariz ▁ation</w>
da▁y care</w>
an▁i m
ac commo
R el
F r▁
▁wo▁r th</w>
▁st and</w>
▁sc ore</w>
▁person nel</w>
▁fin ished</w>
▁e ve</w>
▁d ollars</w>
▁a bo▁
▁&apo▁ s;▁s</w>
z y</w>
techn▁o lo▁gy</w>
subsi▁ di
sh o▁uld</w>
re tt
r ace</w>
pl▁ay er▁s</w>
pa i▁d</w>
o▁ff icial</w>
oper ▁ati▁on</w>
mean i▁ng
l▁ead er</w>
k yu</w>
impo▁rt an▁t</w>
hel ic
gov▁er▁n ed</w>
ex h▁i
ap pr▁o
am a</w>
ad or</w>
S hi
L iber
H ou
D ▁o</w>
▁u te</w>
▁sub par
▁ph oon</w>
▁occur red</w>
▁mo vies</w>
▁l ic
▁i nter</w>
▁continu ed</w>
▁P r▁i
r▁e all▁y</w>
re▁c▁e ive</w>
p▁ro fit</w>
pro▁ gr▁ess</w>
n▁u mb▁er</w>
niver sary</w>
n er▁s</w>
me▁ an▁ing</w>
h▁e ck</w>
h ur
h is
f▁i sc
enviro▁n me▁nt</w>
ce▁nt e▁r</w>
an tity</w>
P ▁r
O K</w>
M i▁
F ed
7 00</w>
1▁ 3</w>
▁respon sibility</w>
▁provi des</w>
▁mi xed</w>
s ay▁s</w>
pres sion</w>
pe▁r so▁ns</w>
me dical</w>
jec ted</w>
fle▁ xi
f low</w>
ew oo</w>
cere mony</w>
a▁c ting</w>
R ▁ul
Not with
Ko▁ re▁
Distr i▁ct</w>
▁t ures</w>
▁pro gress</w>
▁pri se</w>
▁charac ter</w>
▁atmo sphere</w>
▁Amer ican</w>
sti g
quar ter</w>
op▁ inion</w>
li ber
la▁ tion</w>
i▁s tics</w>
inst a▁l
in s▁i
hou sing</w>
ex es</w>
e dy</w>
con▁trac ▁t</w>
at t▁e
S▁t at▁es</w>
Re al</w>
A d▁
▁t ourism</w>
▁g e▁n
▁exam ination</w>
▁b ul
▁He alth</w>
t on
s▁u▁ b
s▁ ong</w>
sen se</w>
s wi▁
re▁s p▁ond</w>
re▁g ul
reg a▁rding</w>
l am
h imself</w>
gener ation</w>
f▁a r</w>
fi sh
di a▁
bu▁ s</w>
H o▁ng</w>
&ap▁os▁; t</w>
▁o t▁her</w>
▁l onger</w>
▁corpor ate</w>
▁a broad</w>
▁T ae</w>
vo ice</w>
to▁ day</w>
s▁er▁ ved</w>
surrou▁n ding</w>
regul ations</w>
ou▁n ced</w>
j om</w>
inte gr
ho st</w>
en gine
app▁ro▁v al</w>
Su won</w>
▁s p▁ace</w>
▁pr actice</w>
w▁ith i▁n</w>
t en▁
sp ▁ort</w>
pre vious</w>
p en▁
me▁ mber</w>
f▁orm e▁d</w>
f▁e s▁sor</w>
comp a▁ny</w>
a▁ gain</w>
Y o▁ng
W est</w>
T▁e ch
Sh in
Met▁ro politan</w>
Chri▁ stian</w>
▁sec ure</w>
▁en ds</w>
▁design ed</w>
y o▁ng</w>
u ted</w>
s▁ t▁
relatio▁n ship</w>
pr▁e sent</w>
ov▁er n▁ment</w>
n dex</w>
▁i ndex</w>
ma t▁ion</w>
ex e▁c
a▁ ching</w>
Th▁r ou▁gh</w>
Je▁ ju</w>
▁concer t</w>
▁ben efits</w>
we bsite</w>
t▁a ki▁ng</w>
se on▁g</w>
r▁u n
r▁a in</w>
re ased</w>
pe▁rc e▁nt</w>
oun▁ d
n it</w>
ir s</w>
f in▁d</w>
emph as
ef▁f e▁cts</w>
d▁u le</w>
a▁t in▁g</w>
N ew
Hy ▁un</w>
E ui</w>
D iv▁i
7 7</w>
▁dis count</w>
▁S te
▁Dem ocratic</w>
▁19 ▁
ver▁ sity</w>
un▁m irae</w>
str alia</w>
r▁i gh▁ts</w>
poli▁ cy</w>
m▁o ving</w>
hol d▁s</w>
c▁o uld</w>
any more</w>
T▁ V</w>
Rev ol
L ove</w>
C▁h oi</w>
▁wor ried</w>
▁lea ders</w>
▁a id</w>
▁E very</w>
▁Ac tor</w>
▁ ong</w>
w▁or d▁s</w>
subs▁idi ze</w>
se o▁ng</w>
p▁o in▁ts</w>
pu▁l ar</w>
perfor▁ manc▁e</w>
me an▁s</w>
l▁a test</w>
f▁fe red</w>
cl us
a▁l lows</w>
ar▁r i▁ved</w>
an ies</w>
Fes t▁ival</w>
Alt▁h o▁ug▁h</w>
9 9</w>
▁ser ies</w>
▁po st
▁m om</w>
▁l og
▁M a▁yor</w>
w all</w>
u▁r ity</w>
t▁r an
ti a▁l</w>
s▁t ries</w>
s▁e arch</w>
sl u▁gg
re▁ le▁ase</w>
r illion</w>
▁t rillion</w>
p▁ur▁ suant</w>
or▁ m</w>
ord▁in ate</w>
mean▁ time</w>
jo▁ intly</w>
fo▁l lowing</w>
c▁a tion</w>
co▁nt act</w>
ch in▁g</w>
b▁i r
b ab
T i
▁w i▁
▁inst alled</w>
▁expec ts</w>
▁b all</w>
t▁ i▁ng</w>
tog e▁
se▁ cond</w>
se ek</w>
pub li▁
par ▁a
li▁ ties</w>
h▁a ll</w>
govern▁ men▁t</w>
b ong</w>
S▁e jong</w>
St ation</w>
▁t en</w>
▁m ▁a
▁feel ing</w>
▁fe els</w>
wor▁ k
v▁i c
t▁h ings</w>
t ell</w>
se▁ as</w>
sch▁o ols</w>
men d
fel ▁t</w>
ea▁ sy</w>
c▁a reer</w>
ac t▁u
a ks</w>
▁sy mp
▁f u
▁e lderly</w>
▁appreci ate</w>
th o▁
th i▁rd</w>
stor ▁y</w>
re hab
over seas</w>
ou ido</w>
no▁ on</w>
negot ▁i
me eti▁ng</w>
ma ins</w>
l lows</w>
k▁e ep</w>
infor ma▁tion</w>
ge es</w>
g r▁an
g e▁r</w>
auth ▁or▁ity</w>
ad min▁i
D o▁n
▁exp ect</w>
▁entr ance</w>
▁c lear
▁c h▁eck</w>
▁a buse</w>
▁S ou▁th</w>
▁A bo▁ut</w>
▁19 th</w>
t▁a ff</w>
tic i▁p
syst em
su▁l a</w>
su pe▁r
respon se</w>
d▁o m
couns▁e ling</w>
con▁t inue</w>
Un i▁versity</w>
OS CO</w>
H wa▁
F▁ir st</w>
Ch un</w>
A I
8 2</w>
2▁0 18</w>
▁u ses</w>
▁t wice</w>
▁r atio</w>
▁off ic
▁e ve▁ry</w>
▁cam era</w>
▁S tu
▁Che ong</w>
v▁i sit</w>
si er</w>
p▁a in</w>
l l▁ow</w>
ici de</w>
f estival</w>
c▁anc er</w>
as▁ sa
G e▁
F o
D P</w>
▁plan e</w>
▁ear lier</w>
▁Se wol</w>
▁Se ung</w>
▁Rul es</w>
▁F eb
▁201 3</w>
x ing</w>
s▁t a▁nce</w>
prof e▁ss
m▁a in</w>
in ▁ation</w>
gr▁o wth</w>
g ri
fir ▁e</w>
con st▁
con str▁uc
b les</w>
av y</w>
ag a▁
S▁ y
P▁o licy</w>
H▁ y
E ve▁n</w>
C ▁an
▁s po
▁a th
▁S ch
▁F riday</w>
stat us</w>
se pa▁r
r▁i sing</w>
or ▁d</w>
n ur
in co▁me</w>
guar a▁n
go▁ vern
expl ▁o
en e</w>
ed ▁s</w>
compet▁i t▁ion</w>
be hind</w>
ar ou▁nd</w>
all ation</w>
Ye on
S▁en ior</w>
S ong
Mi ke</w>
M ed
C am
B a▁nk</w>
▁speci fic</w>
▁sol ar</w>
▁sh ▁are</w>
▁se ats</w>
▁p are</w>
▁n ature</w>
▁i e▁s</w>
▁g ets</w>
w en▁t</w>
t▁i ves</w>
or ▁ed</w>
oc r▁a
nu mb▁er</w>
i▁n du
g el
di▁ff ▁ic
ch ild▁
bu▁ dget</w>
a▁ il
atmo s▁ph▁ere</w>
ar d
ad mi▁n
M oun
D▁a e
▁u nit</w>
▁streng then</w>
▁pr ic▁e</w>
▁ow▁ ner</w>
▁o ▁n</w>
▁i l</w>
▁emp ty</w>
▁L un
▁Jan uary</w>
wo▁r kin▁g</w>
vis or</w>
sc▁h ools</w>
p▁a red</w>
m▁itt ▁ed</w>
minis t▁r
men d</w>
m ated</w>
l▁is▁t en</w>
institu▁ tio▁ns</w>
f lu
direc tly</w>
co▁ u
Vietn▁a mese</w>
Pe▁n sion</w>
Pen insula</w>
M ar▁i
▁tr▁i al</w>
▁tit le</w>
▁t rack</w>
▁m u
▁fa▁ ils</w>
▁chi ▁ef</w>
▁a llows</w>
w ar▁ds</w>
pr▁e ▁pare</w>
ph il
out side</w>
new s▁p
mot i
mil it
j ourn
h ▁on
d▁ ri▁
cur rent</w>
chil▁d care</w>
ch al▁l
Ana▁ly s▁ts</w>
7 6</w>
▁s ing
▁h um
▁g un</w>
▁dis ease</w>
▁&apo▁ s;
yo▁ nd</w>
x ten
wo▁r ried</w>
us t▁r
ta▁ ble</w>
s▁up port</w>
s▁ i</w>
spec ts</w>
prep▁ar i▁ng</w>
op inion</w>
on▁g gi</w>
li ent</w>
j us
j on▁g</w>
il it
f ar▁m
diffe ren
cri t▁icis▁m</w>
b▁e li
Pa ju</w>
L ED</w>
Ko▁re a▁n</w>
I P</w>
B▁e fo▁re</w>
A uth
A ffairs</w>
▁wr ote</w>
▁u s▁ers</w>
▁pro perly</w>
▁i t▁
▁1 2th</w>
y ber</w>
we▁a ther</w>
we ek
w ill
st▁ op</w>
stud ▁ent▁s</w>
stru▁c ture</w>
qu▁a li▁ty</w>
par ts</w>
off▁i ce</w>
ic e▁s</w>
go▁ al</w>
fac ▁e</w>
f i▁ne</w>
ent▁ ly</w>
d e▁nts</w>
S ▁p
R▁e search</w>
Dec ▁embe▁r</w>
Chair p▁erson</w>
▁s ti▁ll</w>
▁pro duce</w>
▁pri l</w>
▁m ayor</w>
▁f i▁
▁educ ational</w>
▁concer ns</w>
▁I n▁
uti liz
p m▁ent</w>
m▁on th▁s</w>
mul ticul
i▁d es</w>
e▁x i
ex pre
er ship</w>
com fortable</w>
candi▁d at▁es</w>
ag ers</w>
a head</w>
T▁h a▁nks</w>
O l▁y
Feb ruary</w>
9 8</w>
10 ▁0</w>
▁separ ately</w>
▁p r▁
▁oper ated</w>
▁gr ant</w>
▁U rban</w>
▁O nly</w>
▁I ran</w>
u▁n fair</w>
t▁ri p</w>
subparag ▁r
ric ul
re▁ al</w>
r ates</w>
quali fic
p▁r ot
p▁r ice</w>
p yeong</w>
mis▁ sion</w>
m p▁le</w>
m ag▁e</w>
fo▁ re
a▁l l▁y</w>
ag g
Jan uary</w>
▁rev en
▁ne igh
▁i t▁e
▁hu ge</w>
▁f ru
▁e xten
▁W on</w>
▁P en
▁Bus ▁an</w>
tem ▁s</w>
s▁t age</w>
s▁e ok</w>
repres e▁n
rel ations</w>
pr▁o duce</w>
pro▁ ces▁s</w>
l▁o west</w>
l lowed</w>
investig▁a ti▁on</w>
il le▁g
gi e▁s</w>
g e▁nce</w>
e▁ sting</w>
d an</w>
c▁ le</w>
al in▁g</w>
S tu▁
O ct▁
Ko▁ re▁a</w>
J▁u st</w>
▁w ▁as</w>
▁vari ety</w>
▁re ti
▁qu i
▁ne▁e d▁s</w>
▁a lity</w>
ta ste</w>
sel e▁ct▁ion</w>
re▁ mov
pa▁ rents</w>
ot ing</w>
k ish</w>
institu tions</w>
gn ▁am</w>
fug ee</w>
fl▁o w
f ourth</w>
e▁n d▁ing</w>
dis ease</w>
conf▁ir▁ med</w>
con fer
ca used</w>
H on
De p▁ar
▁tur ▁es</w>
▁prot ection</w>
▁mach ine</w>
▁high ly</w>
▁H ere</w>
u de</w>
t ▁es</w>
sy mb
sol▁ di
sh▁o uld</w>
sec ▁ur
r▁ ded</w>
p▁la yed</w>
pr▁o g▁ram</w>
prosec▁u ti▁on</w>
n▁ot ▁ice</w>
n▁e t</w>
innov ▁ative</w>
h i</w>
dipl o▁matic</w>
con struc
c ov▁er
c eme▁nt</w>
bu ilt</w>
Intern et</w>
E a▁st</w>
▁sh ▁own</w>
▁r ▁e
▁n el</w>
▁men u</w>
▁eff ects</w>
▁a po
▁T ech
▁R ussia</w>
▁J a▁pan</w>
vi▁ ty</w>
ul ted</w>
t▁h er▁e</w>
ti se</w>
rece ived</w>
p▁o int</w>
pur su
n it
men ▁
leg ▁al</w>
in▁ ance</w>
investig a▁tion</w>
il▁ li▁
i ous</w>
ex▁per t▁s</w>
ev e▁nt</w>
du▁ st</w>
con▁ flict</w>
con ▁nec
Th▁r ough</w>
G▁ lobal</w>
▁suc cess</w>
▁i rd</w>
▁f ro▁nt</w>
▁f ish</w>
▁en se</w>
▁M usic</w>
▁6 th</w>
wa ren
w am
tici pants</w>
s▁ti tu
sur vey</w>
st▁r u▁c
stru c▁tion</w>
ren ds</w>
p▁o sed</w>
mu▁s ical</w>
l▁ an
iz ▁ation</w>
ir ▁e</w>
incr▁e ase▁d</w>
g oods</w>
fav ▁or
comp▁ leted</w>
bl ue</w>
ac tor</w>
T wo</w>
Sa▁m su▁ng</w>
Oc▁tob e▁r</w>
C▁ re
▁r e▁c
▁i m▁age</w>
▁f ail
▁del icious</w>
▁a dd</w>
▁Kak ao</w>
s▁ sion</w>
situ a▁tion</w>
op inions</w>
n tel
▁i ntel
m▁ar ine</w>
mun i▁cipal</w>
ent ▁eri▁ng</w>
dro p</w>
disc u
c▁a st</w>
comp▁l et▁ed</w>
compe t▁iti▁on</w>
cha▁ng ing</w>
ch ▁ic
S▁e o▁ul</w>
Sep te▁
Dec ree</w>
▁t ers</w>
▁re duced</w>
▁po p</w>
▁mar keting</w>
▁i ▁
▁gr and
▁be i▁ng</w>
▁Mat ters</w>
t▁h a▁n</w>
se a▁
o▁ff ic
m▁on ey</w>
ma▁ ch
m oment</w>
h ands</w>
gu aran
ga▁ ve</w>
e▁ f
ear th
e d▁u
di vision</w>
cur red</w>
con cl▁u
a▁s e▁d</w>
av▁er ▁age</w>
ang er</w>
S an
M a▁yor</w>
▁t▁h at</w>
▁sub mitted</w>
▁mov ing</w>
▁li f▁e</w>
▁fin ish</w>
▁bro adca
z ine</w>
su s▁p
resp▁ on▁
op▁e ▁rate</w>
ne▁t work</w>
ne t▁
n ▁ers</w>
ho▁ liday</w>
el im
de▁c l▁ine</w>
c▁o u
comfor ▁t
bu▁ y</w>
M il▁i
He un▁g</w>
▁s un
▁F ood</w>
▁201 2</w>
y▁ ong</w>
yo▁ung er</w>
st re▁
sp on▁
s y▁
s chedule</w>
pu▁ sh</w>
pro grams</w>
o▁us ly</w>
me▁ dic
l most</w>
i▁c k</w>
ev ▁ents</w>
ev ▁ent</w>
e i▁ng</w>
dec ▁l
con tr▁ac
c el</w>
bri▁ef ing</w>
a ward</w>
V en
Be▁c au▁se</w>
A m▁id</w>
▁ser ve</w>
▁o l</w>
▁co▁m es</w>
▁c ou▁n
▁att ended</w>
t▁ ics</w>
trea▁t me▁nt</w>
s▁u▁b mit</w>
si oned</w>
ram ▁e
pr▁es▁i dent</w>
origi▁n ally</w>
n atur
mo on</w>
l ▁ation</w>
id ance</w>
em ▁er▁
el low</w>
eadqu arters</w>
col l▁a
ch a▁n
can not</w>
There▁ fore</w>
H an▁
Ch o▁i</w>
▁be ginning</w>
▁A p▁ril</w>
w inter</w>
us e▁r</w>
s▁ i▁gn
re su
pat▁i ent▁s</w>
ob je▁c
me thod</w>
inau gur
g▁row ▁th</w>
es sed</w>
cor ru▁
c ue</w>
as ked</w>
D rug</w>
C hai▁r
C O
▁rul es</w>
▁o nl▁y</w>
▁M an
▁H a</w>
w▁or l▁d</w>
w o▁o</w>
v als</w>
ur sday</w>
temper▁a t▁ure</w>
ri▁ se</w>
resta▁ urant</w>
publ▁i s▁hed</w>
n es</w>
mpl y</w>
l in</w>
h i▁cle</w>
f▁or ▁med</w>
f▁ lo
fu el</w>
ex tra
ent ation</w>
e ps</w>
da u▁gh
concen t▁r
a▁c tio▁n</w>
T e
La w▁
K an▁g</w>
Electr▁on ics</w>
C a▁n
Bu▁ san</w>
▁sit u
▁pro fit</w>
▁predic ted</w>
▁mov ement</w>
▁b▁u ild</w>
▁air ▁s</w>
▁a ▁t</w>
▁a lmost</w>
▁a cross</w>
w aste</w>
t▁u de</w>
ti ally</w>
si st
mu▁ st</w>
mul▁ti ple</w>
l ar▁ge</w>
ind▁u str▁y</w>
ful ▁l</w>
experi e▁n
de di▁c
bec ▁ause</w>
ap e▁r</w>
Se u▁ng</w>
S u▁n</w>
R▁i ghts</w>
O ▁c
J ak
Ar my</w>
200 ▁
▁temper ature</w>
▁su▁ b
▁sp icy</w>
▁sex ual</w>
▁s cience</w>
▁di st
▁det ailed</w>
▁de fense</w>
▁be ▁en</w>
▁S ong</w>
tu▁r al</w>
s▁a les</w>
ma▁ ximum</w>
ma p</w>
ili ar</w>
foll▁o w</w>
facili▁ tie▁s</w>
d▁ur in▁g</w>
b▁or n</w>
ass oci
app ed</w>
C re
C J</w>
▁re flect</w>
▁invol ved</w>
▁g overnor</w>
▁consider ing</w>
w▁a ge</w>
w▁ ang</w>
t▁ on</w>
re▁ du▁ced</w>
rela▁ tions</w>
pu t▁y</w>
pr▁a is
prin▁ ci▁
po l
o ke</w>
n▁ men▁t</w>
na▁t ur
irl friend</w>
institu▁ tions</w>
fac ility</w>
ex▁ pla▁
di▁sc u▁
di▁ verse</w>
disa ster</w>
c▁a l</w>
b i</w>
affil▁i ated</w>
S ports</w>
Bus ▁an</w>
▁y ou▁ng</w>
▁sign ed</w>
▁i ni
▁bre ak
▁any one</w>
▁N ex
s▁pec i
st▁ ate</w>
se▁c t▁ion</w>
se e▁n</w>
re p▁e
presi▁ dential</w>
o▁ cr
o sun</w>
m▁u tual</w>
hol▁ ds</w>
h i▁t</w>
e▁ duc
d▁ir▁ec tor</w>
d▁i vi
d e▁nce</w>
c▁a rd</w>
ati s▁
all e▁d</w>
R u
G▁r oup</w>
Fur ther
B O</w>
2▁ 5</w>
▁fin ding</w>
▁f ight</w>
▁dis cu
▁d ou
▁c ong
▁A hn</w>
▁2 1</w>
v▁ol▁u me</w>
ve▁n tion</w>
se▁ arch</w>
p▁l an
prom▁ot ing</w>
ph oto</w>
mp t</w>
improv ▁ement</w>
f▁e e</w>
c▁ k
chair p▁er▁son</w>
L e
▁w a▁
▁rea dy</w>
wat ▁er</w>
so▁ on</w>
sh▁e ries</w>
settl▁e m▁ent</w>
rea▁ dy</w>
perform▁ ance</w>
oper a▁tion</w>
h▁e al▁th</w>
he▁ althy</w>
g▁a ve</w>
f l▁a
e um</w>
d▁ ance</w>
conf lic
charg es</w>
b▁ec ause</w>
a▁t edly</w>
a▁c tively</w>
avai▁l a▁ble</w>
U N</w>
T▁r ade</w>
N a▁m</w>
I▁ s
7 3</w>
201 1</w>
▁vi a</w>
▁regi onal</w>
▁over all</w>
▁2 1st</w>
▁2 .
v▁i sion</w>
uti l▁i
s▁e um</w>
ss▁ ue</w>
res ▁earc▁h</w>
p▁ lex</w>
pow ▁er
mi▁ d
l▁i kely</w>
in▁ d
i o▁r</w>
h un▁dr▁eds</w>
f▁i eld</w>
fu▁ ll</w>
el ▁s</w>
el se</w>
cont inue</w>
comp e▁n
certi f▁ic
certi fi▁c
c tually</w>
▁a ctually</w>
ber ▁e
Prov i▁nce</w>
M e▁mb
200 9</w>
▁rel ease</w>
▁rec ords</w>
▁fi fth</w>
▁b rought</w>
▁aga i▁n</w>
wa▁ iti▁ng</w>
vi ti▁es</w>
u p▁s</w>
tri▁l lio▁n</w>
st r▁eng
sec o▁n
scre en</w>
s ement</w>
mee▁t in▁g</w>
m ▁ul
i▁ssu e▁s</w>
intr▁o duce</w>
indivi▁ du
g ▁s</w>
fin ed</w>
expa▁n di▁ng</w>
chair p▁erson</w>
c au
Nov ▁embe▁r</w>
He alth</w>
Enviro▁n ment</w>
A▁m er
, 9
▁w a▁nts</w>
▁s er▁
▁m enti
▁lea s▁t</w>
▁l ▁e
▁i tem▁s</w>
▁del iver</w>
▁c ash</w>
▁O ctober</w>
▁Liber ty</w>
▁H eavy</w>
▁&ap▁o s;t</w>
st an</w>
sp it
son nel</w>
sc ap
our ▁t</w>
ne eds</w>
min ute</w>
li▁ ze</w>
ke pt</w>
gr▁o ups</w>
er g▁y</w>
emen ▁t
co▁ uld</w>
cont roversy</w>
cam p</w>
a▁g o</w>
a▁ mp
au▁ th
Ol▁y mp
▁o kay</w>
▁h ou▁se</w>
w ag▁e</w>
u▁r s</w>
tog▁e th▁er</w>
s▁occ er</w>
sul ▁t</w>
st▁ ric
r▁a i▁sed</w>
repres e▁nt▁
regis▁t ered</w>
p▁o s▁
pro j▁ects</w>
or m
of▁f icio</w>
l▁ ots</w>
lo▁ se</w>
le▁ t</w>
j▁e c▁t</w>
ic ity</w>
f▁or med</w>
for ward</w>
exp ▁en▁ses</w>
exp e▁r
ev ac
est ern</w>
ea▁r lie▁r</w>
consid e▁r
che ong</w>
b ited</w>
St▁ ation</w>
S tr
N a▁m
▁re duction</w>
▁f ailed</w>
▁c hairman</w>
▁a llowed</w>
▁S ome
ye▁ t</w>
ve▁r sity</w>
rou p▁s</w>
p▁o i▁nts</w>
pro▁ blems</w>
pres▁i den▁t</w>
pr ▁in
posi▁ tion</w>
ot▁h ers</w>
ic k
ho liday</w>
ex em▁p
evel s</w>
do ing</w>
cont▁in▁u es</w>
b a▁nd</w>
a▁ pe</w>
at y</w>
at e▁
all ▁s</w>
al low
Bare▁ unmir
A s▁
▁a pp</w>
▁A r▁
▁2 7th</w>
▁1 4th</w>
s▁e ason</w>
ser▁ ve</w>
s now</w>
ri▁ ght</w>
r rested</w>
▁a rrested</w>
r ily</w>
n i</w>
estab ▁
docu ments</w>
dete▁r mine</w>
c▁a rs</w>
charac te▁r
ch urch</w>
car e▁
b▁u y</w>
al▁ leged</w>
ab ol▁i
Ma▁t ters</w>
C ▁or
A f▁
▁la unched</w>
▁h eav
▁_ _</w>
▁H ou
w▁ r
v illage</w>
te▁ gy</w>
s▁ sing</w>
sti▁ tu
respec ti▁
ra▁is i▁ng</w>
p▁ lea▁se</w>
pro por
perform▁ an▁ces</w>
hol ders</w>
c▁ la▁
cand▁i da▁te</w>
ca re
b ers</w>
ac tions</w>
Ph ili
K ▁i
Ja▁nu ar▁y</w>
F ro▁m</w>
Co▁m mittee</w>
▁u l</w>
▁pow ▁er</w>
▁giv ▁en</w>
▁dis aster</w>
▁ch ose</w>
▁c ell</w>
▁N o.</w>
th ics</w>
s▁ub mit</w>
su▁cc ▁ess</w>
str i▁al</w>
sign ed</w>
rough out</w>
pro▁ pos
m▁on ▁th</w>
m▁e dium</w>
mark▁e ting</w>
j e▁
in s▁t
ic▁ k</w>
h▁o on</w>
h ▁in
en ▁ed</w>
div▁i s▁ion</w>
a▁t ors</w>
a▁l ls</w>
an nel</w>
6 9</w>
▁tre es</w>
▁ste el</w>
▁sc ope</w>
▁sanc tions</w>
▁mea sure</w>
▁i denti
▁Th ▁e</w>
▁T ur
▁1 7th</w>
vis▁i onal</w>
t▁en s</w>
them selves</w>
p ted</w>
id es</w>
er i▁ng</w>
c▁h a▁irman</w>
b lo▁
W or▁
G▁o ve▁rnor</w>
&▁ap▁os; d</w>
▁tax es</w>
▁t in▁g</w>
▁t ar
▁rec ru
▁me di▁a</w>
▁main tain</w>
▁gre a▁t</w>
▁distri bution</w>
▁di strict</w>
▁Sa fety</w>
▁J ud
▁Au gust</w>
y ▁o</w>
w e▁r</w>
suc ce
se i</w>
r▁egi on</w>
re▁f le▁ct</w>
requ est</w>
registr ▁ation</w>
qu al▁i
p▁o s▁i
p▁lac e▁s</w>
pr▁es▁i de▁nt</w>
pre v
par▁t i▁ci
i▁n t▁e
i▁ dea</w>
impr▁o vi▁ng</w>
c▁on d</w>
cryptoc ur▁rency</w>
c ool</w>
app▁rov a▁l</w>
P resi▁
G▁o vern
7 9</w>
▁vi ew
▁respon sible</w>
▁dri ve</w>
▁b lock</w>
▁W ave</w>
▁E ast</w>
s a▁l
re▁ ve
ph ▁on
o▁m ing</w>
opi▁ni on▁s</w>
lit e</w>
il e▁d</w>
ex a▁
ef s</w>
d ark</w>
c▁h arg
c▁ a▁se</w>
cra ft</w>
circum stances</w>
ampi on
N G</w>
E ▁a
▁m igh▁t</w>
▁lim ited</w>
▁for mul
ver ▁s</w>
t▁ un
p▁ro ve</w>
pr▁e pare</w>
negoti ations</w>
le tin</w>
ke up</w>
f el▁l</w>
e▁n t▁ly</w>
et ▁er
establ▁i s▁h
ent▁r a▁nce</w>
din ary</w>
c▁i al</w>
compl ex</w>
cl o▁se</w>
app▁ ro▁
Se▁ p
▁re pe
▁pl ac
▁K yung</w>
wor▁ ld</w>
uro pean</w>
s▁i x</w>
id ▁ed</w>
fi▁ c</w>
er ful</w>
co▁n c▁er
at▁ tract</w>
am id</w>
a wei</w>
T ec▁h
M▁ar ket</w>
Dem▁o cr
DA Q</w>
▁t own</w>
▁menti oned</w>
▁V ice</w>
▁M i
tra▁ns▁ fer</w>
ti▁ ms</w>
r▁esc ue</w>
r▁eg▁i on</w>
ra p</w>
off▁ic i▁al</w>
n ever</w>
j un
il ▁s</w>
gh ting</w>
f▁ rien
f ▁y</w>
exhib▁i tio▁n</w>
d▁u st</w>
air y</w>
M▁e x
C o▁r
▁w el▁l</w>
▁sh a▁re</w>
▁lea se</w>
▁d ur
▁acc ess</w>
▁K um
vi si▁
t▁iv el▁y</w>
transp o▁r
st▁ ice</w>
spec tive</w>
s ory</w>
pre dic
m▁a d▁e</w>
i▁ssu es</w>
ind▁u strial</w>
for ▁ec
e en</w>
d e▁n</w>
continu ▁ously</w>
cam ▁pa
author▁i tie▁s</w>
atmo sphere</w>
at e▁ly</w>
ap o</w>
Yo▁ ung</w>
Y o▁on</w>
W omen</w>
Oc▁t ober</w>
C re▁
7 4</w>
▁I sn</w>
▁&a▁ pos▁;s</w>
wh e▁n
t▁ op
re▁ at</w>
rec r▁u
ori ▁es</w>
m an▁
in d▁ic
headqua▁r t▁ers</w>
h y▁
e▁n d
d▁u t▁ies</w>
contro▁ versy</w>
be▁ ing</w>
ad es</w>
acci▁ dent</w>
Ye on</w>
P▁rov i▁nce</w>
Mar▁i time</w>
Lo▁ ok▁ing</w>
E▁x c▁ept</w>
▁te achers</w>
▁i tal</w>
▁A pr▁il</w>
y er▁s</w>
signific▁ antly</w>
s s▁ing</w>
s mo▁
pro▁ jec▁t</w>
per m▁an
go▁ ti
f▁ lu
e a▁t</w>
de▁vel▁o p</w>
cre ated</w>
at en</w>
W el
Se▁r vic▁e</w>
N ati▁onal</w>
F estival</w>
Co▁un c▁il</w>
Asse▁mb ly</w>
A p
7 8</w>
201▁ 8</w>
&a▁po▁ s;▁s</w>
▁wor k▁s</w>
▁enti re</w>
▁cel ebr
▁bor n</w>
w▁i fe</w>
t▁ old</w>
s▁i vely</w>
pur pose</w>
me tics</w>
mate▁ri a▁ls</w>
l leg
g ok</w>
fo▁r mer</w>
f oun
exper ts</w>
elec ▁t
c ▁ente▁r</w>
att en▁d
ar d▁s</w>
agen▁ cies</w>
I A</w>
G r▁oup</w>
9 ▁th</w>
▁sid es</w>
▁ro oms</w>
▁pre tty</w>
▁mar k</w>
▁g round</w>
▁W ater</w>
si▁ c</w>
ref e▁r
re t
pr▁ot ect</w>
pro p▁er
im migr
h▁o l
deliber ▁ation</w>
c▁om in▁g</w>
b▁ran ch</w>
ari an</w>
ace u▁
S ta
M ▁in</w>
L t
7 1</w>
&a▁po▁ s;▁t</w>
▁we ight</w>
▁su c▁h</w>
▁o s</w>
▁m em▁b
▁k inder
▁c up</w>
▁1 3th</w>
u g▁h
s▁ ti▁
situ ▁ati▁on</w>
ram e
h o▁ur</w>
fe▁ w</w>
f ter
e▁n siv▁e</w>
econom ▁ic</w>
c s</w>
c in
▁w e▁re</w>
▁v eri
▁u se▁rs</w>
▁f oot
▁b aby</w>
▁C l
trans ac▁
tic▁i p
s▁t m▁ent</w>
r ou▁gh</w>
peti tion</w>
pa▁ ss
m▁ y
mo▁r ning</w>
mem ▁orial</w>
mai▁n ta▁in</w>
co▁mp a▁nies</w>
cons▁um e▁rs</w>
alt▁h ou▁gh</w>
aliz ing</w>
M ▁on
M us
, 5
&apos▁; m</w>
&apos; ▁t</w>
▁y ounger</w>
▁vis ▁ited</w>
▁t ree</w>
▁Viet nam</w>
▁S t▁
w▁h er▁e</w>
un▁ ce</w>
sp read</w>
se ▁en</w>
r▁ec ▁ord</w>
ra▁p h</w>
pur▁ ch▁ase</w>
pr▁ot e▁ct</w>
pro▁mo▁t ed</w>
pro vide</w>
pol▁i tan</w>
om ▁y</w>
m yung</w>
hon ▁or
hic▁ le</w>
f riendly</w>
esta▁b lish</w>
empl▁o yee▁s</w>
d▁uc ts</w>
de▁ ve▁lo
a▁gen ▁cy</w>
any▁ thing</w>
anno▁un ced</w>
N ▁o</w>
9 4</w>
20▁1 9</w>
▁e t▁
▁ann ual</w>
▁A▁ fter</w>
xi ety</w>
r▁i es</w>
r▁a ther</w>
re▁vi sed</w>
requ ▁es▁ted</w>
represent a▁
q▁u e</w>
poli tical</w>
manag eme▁nt</w>
m ly</w>
li v▁e</w>
f▁i le</w>
d ult</w>
c▁ tio▁ns</w>
co▁n t▁rol</w>
cl▁u ding</w>
cla▁ ss</w>
b▁e auty</w>
ag▁en cy</w>
Sa▁m sun▁g</w>
S a▁ng</w>
Represent▁ ati▁ve</w>
Ed▁uc ation</w>
Com mi
▁s ci
▁inter view</w>
▁f oods</w>
▁cal cul
▁c ▁a
▁a w▁are</w>
▁O kay</w>
▁Corpor ation</w>
use ok</w>
tr▁a ding</w>
s▁t ay</w>
sh ▁es</w>
sh eries</w>
reg ular</w>
part ments</w>
m ur
i▁n t
int ▁ed</w>
fe▁ ssi
del ines</w>
c▁ri sis</w>
com▁p uter</w>
a▁c king</w>
aud▁i ence</w>
ap se</w>
ag e▁d</w>
Z one</w>
S tr▁a
Gover▁n m▁ent</w>
▁s ad</w>
▁g ro▁
▁9 th</w>
▁ i▁ce</w>
x t
with o▁ut</w>
tech no▁
suc cess</w>
sp aper</w>
re▁as o▁ns</w>
reful ly</w>
ques▁ tions</w>
p▁a l</w>
par ties</w>
impr▁o ving</w>
gre▁ ssive</w>
f▁i c</w>
ex c▁lude▁d</w>
c▁a u▁ght</w>
bur den</w>
appea▁r a▁nce</w>
ap y</w>
N i
G ▁ir
G i
Ch i▁l
▁re ports</w>
▁inv oice</w>
▁fil ms</w>
▁eff ective</w>
t▁ rial</w>
s▁e ar▁ch</w>
sp▁e cia▁l</w>
ri▁ me</w>
r r
pro▁gr am▁s</w>
pol▁i c▁ies</w>
or ded</w>
kn ess</w>
i▁l lion</w>
in depen
i dea</w>
f ting</w>
f ec
exhib▁i t▁ion</w>
excl▁u sive</w>
examin ▁at▁ion</w>
emplo▁ ym▁ent</w>
cre▁ ative</w>
coo pe▁r
conti▁nu ous</w>
consul t▁atio▁n</w>
appl ▁i
Ye on▁g
On▁ ce</w>
&▁apo▁ s;
▁th e▁y</w>
▁me at</w>
▁l a▁
▁certific ate</w>
▁c ru
▁adv antage</w>
▁W ar</w>
▁M a▁rch</w>
▁A pple</w>
t e▁x
s per
r▁e form</w>
re▁ quire</w>
pre▁ par▁ed</w>
ne▁ ws</w>
m▁ other</w>
ma ki▁ng</w>
f la▁
ex change</w>
ele▁c t▁ion</w>
e tion</w>
busin▁e sse▁s</w>
a▁tte▁n ded</w>
ar a</w>
T▁a i
S o▁uth</w>
R ed</w>
P or
Mil▁i tary</w>
M ex
1 20</w>
▁sh ape</w>
▁ec ts</w>
▁con tains</w>
▁c o▁l
▁b rain</w>
▁U.S ▁.</w>
▁A pri▁l</w>
▁A l▁
▁&apo▁ s;t</w>
ur rency</w>
un t▁il</w>
tech no▁logy</w>
speci ally</w>
res sion</w>
pr▁i ses</w>
op ened</w>
oo gle</w>
n ic</w>
li m</w>
in▁ ner</w>
il▁ ing</w>
d ol</w>
c▁h er</w>
co▁n fir
ch▁i ld</w>
an▁ ding</w>
acqu is▁i
O s</w>
K BS</w>
I▁ sl
D▁i stri▁ct</w>
Bi g</w>
2▁ 1</w>
▁t rou
▁re form</w>
▁pic k</w>
▁emp ha
▁bec ▁ause</w>
▁a lleg
▁T okyo</w>
▁Rul e</w>
▁Ex perts</w>
▁2 8th</w>
x press</w>
vic ▁es</w>
ti a</w>
s▁ha red</w>
se ems</w>
res▁p on
ra ise</w>
pla▁n ni▁ng</w>
p un▁i
ma▁t t▁ers</w>
ir cum
g▁i ving</w>
frien d▁ly</w>
e▁m ical</w>
en ever</w>
educ ati▁on</w>
d o▁l
c▁ a▁
custo▁m ized</w>
co in</w>
ar rest</w>
S▁a m
In che▁on</w>
Electro▁n ics</w>
C▁ hai▁rman</w>
6 ▁0</w>
▁n i▁ght</w>
▁e xpress</w>
▁dra wn</w>
▁appo inted</w>
t▁ur ned</w>
tr ack</w>
tion ally</w>
th▁o d</w>
t ree</w>
su▁ n</w>
r▁e search</w>
p▁oli▁ cy</w>
organiz a▁ti▁ons</w>
mate▁ri als</w>
l o▁ng
intro▁ duced</w>
inter p▁re▁
ga k</w>
co al</w>
chair pe▁rso▁n</w>
car ▁s</w>
cap ital</w>
c all▁ed</w>
are▁ as</w>
ana▁ly sis</w>
Jap ▁an</w>
Bare un▁mirae</w>
A▁u gust</w>
▁s il
▁r ent</w>
▁me▁mb e▁rs</w>
▁ide as</w>
▁en try</w>
▁con ference</w>
▁ch oice</w>
t▁h ose</w>
teen ▁ag
ro ads</w>
pre ne
organiz a▁tion</w>
n e▁rs</w>
l ang▁u
in n▁ov
exce ▁e
d ouble</w>
conf ron
Gw▁ angj▁u</w>
Gang won</w>
▁th e▁n</w>
▁s a▁
▁ch anging</w>
▁accoun ting</w>
▁Att ention</w>
w▁a sn</w>
wi▁ fe</w>
u t▁h</w>
u tives</w>
te ac▁h
sto▁ re</w>
sec utive</w>
r▁egi onal</w>
par ▁ents</w>
m▁ ance</w>
l▁a rs</w>
ke▁ ly</w>
in▁ gn
g r▁
ear lier</w>
der ▁ly</w>
denucleariz ation</w>
cont ro
ad d</w>
U.S.-▁ China</w>
P▁o li▁ce</w>
M ost</w>
G▁ yeong
Gover▁n me▁nt</w>
Fi▁n ancial</w>
Dec ▁ember</w>
▁res ear
▁po sted</w>
▁contri bute</w>
volu▁n tary</w>
t▁ ro▁
th ro▁ugh</w>
s▁e ▁
subsc ri▁
se▁ ll
prosec u▁
popul ▁ation</w>
on▁ gh
le▁ad er</w>
inv ▁esti
inc▁reas ▁e</w>
h ▁er
f▁orm ▁ed</w>
ex▁tre me</w>
ex port</w>
der e▁d</w>
ber▁e aved</w>
al i▁
Uni on</w>
S▁u n
S um
D ▁u
9 7</w>
▁vis iting</w>
▁st▁ udy</w>
▁pr▁i or</w>
▁becom es</w>
▁b r▁
▁ad▁ ded</w>
yest erday</w>
wom an</w>
wi d▁e</w>
s▁ pring</w>
sh ar
sc r▁e
p▁or ts</w>
m▁in ▁i
mov ▁em▁ent</w>
ma▁ king</w>
inc u▁
h▁a pp
exp▁er ts</w>
deli▁ ve▁red</w>
de pa▁r
contr i▁bu▁ted</w>
c ur▁
an▁ y
al ready</w>
O ri
L it
H▁ w
E▁n ergy</w>
Chungche ong
. 1</w>
▁qu ick</w>
▁lov ed</w>
▁iz i▁ng</w>
▁happ en</w>
▁consi der</w>
▁Y ong
▁The ir</w>
▁Sep tember</w>
▁3 0th</w>
ver e▁d</w>
uni t▁y</w>
trav el</w>
th i▁nking</w>
sub ord▁inate</w>
s low</w>
ri ties</w>
rec ent</w>
rea▁ d</w>
ra▁ in</w>
qu a▁n
pl us</w>
man ner</w>
l▁i k▁e</w>
le▁c tual</w>
lec ▁t</w>
jo▁ y</w>
i▁ lit▁y</w>
it em</w>
instal l▁at▁ion</w>
in dep
g▁ roup▁s</w>
f▁o l▁
fav o▁rable</w>
em atic</w>
announ c▁ed</w>
al lo▁w
Sh ▁in</w>
Rec e▁ntl▁y</w>
Presid e▁nt</w>
Gyeong s
Com mitt▁ee</w>
A D</w>
▁super intendent</w>
▁gr and</w>
▁de ep</w>
▁conveni ence</w>
▁agre ed</w>
▁a ges</w>
▁a dop
▁2 ▁0
te a</w>
t op
supp▁or ▁ted</w>
st a</w>
smart p▁h
p tio▁n</w>
n▁ in▁g</w>
n uclear</w>
l ementary</w>
k i▁l
enter p▁ri
em▁er gency</w>
d▁e al</w>
d ▁ents</w>
con v▁en
chair man</w>
cen ters</w>
att ended</w>
as e
ar ily</w>
ab o▁r</w>
▁s occer</w>
▁list en</w>
▁del ay</w>
▁Manag ement</w>
▁K ing</w>
▁A ▁r
t▁e ly</w>
tra▁ ini▁ng</w>
tici p▁a
s▁o u▁r
s▁a fe▁ty</w>
succes s▁
rec ▁entl▁y</w>
partic u▁l
instit▁u t▁ion</w>
in cia▁l</w>
form ▁ul
fes▁ ti▁val</w>
ea s▁e</w>
duc es</w>
cel ebr
b▁ and</w>
ar▁t ers</w>
ar ti▁
an n▁u
ad mi▁ssion</w>
5 ▁th</w>
4 ▁.
▁y ourself</w>
▁tru th</w>
▁subsidi ze</w>
▁n ear
▁i ss▁ue</w>
▁coll ect</w>
▁Y ear</w>
su▁m mit</w>
star ▁t</w>
sec ▁ond</w>
se a▁s</w>
pr▁o du▁ct</w>
ow ned</w>
n is</w>
l▁ar ge</w>
l ▁ent</w>
inv ▁o
h▁an d▁le</w>
hi s▁tor
gi on</w>
fi▁ ll</w>
fa ke</w>
di ▁es</w>
da▁ ma▁
d or
clu sive</w>
cer t</w>
ar r▁
an▁ sw
an swer</w>
K ▁a
In su▁rance</w>
D▁e m
▁w ave</w>
▁ta e</w>
▁o nes</w>
▁mo▁ re</w>
▁direc t</w>
▁Sun day</w>
▁2 5th</w>
sol ve</w>
sol o</w>
pos▁ sib▁le</w>
pl ac▁e</w>
par t▁y</w>
p et</w>
mis s</w>
ma zon</w>
i▁n g▁
impl ▁eme▁nt</w>
ili an</w>
expa▁n ding</w>
ev ▁er
es▁ tig
ea dy</w>
dro gen</w>
d ou
b▁u ▁t</w>
b ranch</w>
ap s</w>
P a▁l
I ran</w>
En g
Ch un▁g
▁w earing</w>
▁prepar ing</w>
▁phy sical</w>
▁f an</w>
▁chec king</w>
ve▁n ture</w>
t▁ur ing</w>
tr i▁
th ening</w>
s▁ub m▁it</w>
s▁ u</w>
su▁ gg
re xit</w>
particip▁a ting</w>
men tary</w>
mea s▁ur
low ly</w>
indu stries</w>
im pre▁
im ag
i p
gl om
ff ▁ic</w>
er k</w>
bel ow</w>
b ▁en
av ailable</w>
ass ▁a
acc ur
Pro se▁c
B ang</w>
▁s pe▁
▁m ad▁e</w>
▁gu ess</w>
▁I l
▁Giv e▁n</w>
wi▁ l▁l</w>
s▁t ep</w>
sud▁ denly</w>
sp ▁o
sp e▁ct</w>
sc ul
r▁e ve
regul ▁atory</w>
ph ▁ot
o▁ the▁r</w>
ou ghts</w>
om ▁e</w>
n on
mul ti
mit te▁e</w>
is cal</w>
g▁r ou▁nd</w>
grow ▁th</w>
f i▁t</w>
f e▁ss
eve▁r y</w>
entru s▁tment</w>
en j▁o
deve▁lo pment</w>
co▁mp▁ lex</w>
an sw
al t</w>
Mal a▁y
Ch an▁g</w>
C a▁p
20▁1 6</w>
1 .▁
▁t u▁re</w>
▁loc ation</w>
▁ke pt</w>
▁gre atly</w>
▁e ch</w>
▁care er</w>
▁c al▁ls</w>
z ens</w>
ter ms</w>
po▁pul a▁r</w>
pa▁r kin▁g</w>
legis l▁a
j ob▁s</w>
h▁o urs</w>
g▁ her</w>
exc av
ec ▁ts</w>
appl ied</w>
agen cies</w>
N at▁ion▁al</w>
▁signific ant</w>
▁separ ate</w>
▁Administr ation</w>
ul l</w>
u tions</w>
t▁h oug▁h</w>
re▁ad y</w>
pre ss
o▁n ce</w>
m▁ on</w>
ha ving</w>
gu a▁r
fin i▁
emb▁ ly</w>
eas ant</w>
cri▁ter ▁ia</w>
continu ed</w>
buil▁ ding</w>
app▁ y</w>
Y o▁o</w>
W▁h at</w>
Sh in▁
Secr▁e tary</w>
S u▁n
Pr▁ov inc▁e</w>
Ko▁re ans</w>
G ames</w>
▁w ind</w>
▁t oward</w>
▁p uni
▁me d▁ia</w>
▁h urt</w>
▁cle a▁r</w>
▁c o▁un
▁E ven</w>
▁Distr ict</w>
▁2 6th</w>
▁2 2</w>
ye▁ ong
s▁ m
r ag
pla▁n ning</w>
o▁ pened</w>
ob by</w>
me tro▁
maj ▁or</w>
l l▁ing</w>
i▁mp act</w>
iz es</w>
in struc
f▁ riend</w>
fam i▁li
f ran
er red</w>
em pt</w>
de▁ pe▁n
depar▁t me▁nt</w>
d ▁at▁ion</w>
b a▁se</w>
ar ta</w>
Y ou
T alk</w>
N▁o .</w>
M o▁n
Intern ▁ational</w>
D o▁
▁pub lic
▁An other</w>
wat ch</w>
u▁r gent</w>
ud ▁e</w>
p▁la▁c es</w>
pat▁i en▁ts</w>
m▁e mbe▁r</w>
m▁e a▁
in▁ cludi▁ng</w>
e▁ff ect</w>
d ea
co▁n c
con▁tr▁a ct</w>
be▁ for▁e</w>
a▁g e▁n
a▁c ti▁on</w>
ap ▁a
T o
S CO</w>
N or▁thern</w>
Lea gue</w>
Ko▁ ok
Hy un
G im
Ch in▁a</w>
B o</w>
▁u ti▁on</w>
▁t ro
▁S aturday</w>
▁Dec ree</w>
▁9 0</w>
w▁or ks</w>
trans a▁ction</w>
te en</w>
s▁e em</w>
s o▁ng</w>
s e▁nt
re▁ me</w>
prot e▁c
o▁n l▁y</w>
on a</w>
me at</w>
le▁ dge</w>
k▁ y
ir t</w>
equ iv
di▁s ease</w>
coop▁er at▁e</w>
conc▁ern ed</w>
a▁ de</w>
altern ▁ative</w>
ac▁c u▁sed</w>
ab ▁o
P l▁a
A M</w>
3 1st</w>
▁th a▁n</w>
▁i le</w>
▁i gn
▁Jo int</w>
with ▁in</w>
ven ▁t</w>
t▁ oday</w>
s▁ub▁m it</w>
stu▁d ying</w>
sli▁gh tly</w>
requi re▁
p aper</w>
organiz a▁tio▁ns</w>
ol l</w>
me▁n ▁t</w>
memb e▁rs</w>
l▁o st</w>
lo▁ or</w>
lab or
il▁li▁ ons</w>
fam▁i l▁ies</w>
e▁ven ▁ts</w>
ec es</w>
d▁om estic</w>
dom i▁n
daem un</w>
competitiv ▁en▁ess</w>
comm ▁o
c t▁or</w>
S▁ por▁ts</w>
M an</w>
Gang nam</w>
C oo
Ass▁emb ▁ly</w>
1▁ 7</w>
▁z one</w>
▁st a▁ge</w>
▁or de▁r</w>
▁intern al</w>
▁e s▁t</w>
▁anim als</w>
▁T wo</w>
▁Pro sec
x tre
▁e xtre
ve hi▁
ucleariz ation</w>
s ession</w>
relatio▁n shi▁p</w>
prosec▁u t▁ion</w>
oc racy</w>
mo bi▁
i▁ssu ed</w>
issu ed</w>
inf r
im age</w>
e▁n di▁ng</w>
cre▁ a▁ting</w>
b ri▁
adv an
O n▁e</w>
Je ol
G▁ ang
F ▁in
Ch in
▁s earch</w>
▁mus ▁ic</w>
▁achi eve</w>
▁2 3rd</w>
y ph
t▁ic▁ les</w>
r▁ec o▁rd</w>
oti o▁n</w>
ori▁ gin
n gre
▁i ngre
m▁e t▁ers</w>
indivi d▁u
i k</w>
fes t▁ival</w>
dec▁i sion</w>
a▁r ly</w>
auth ori▁
S ▁tre
R iver</w>
My un▁g</w>
Associ▁ ati▁on</w>
8 3</w>
&ap▁os; m</w>
▁st a▁rt</w>
▁regi stered</w>
▁Ger many</w>
▁D o
wr▁i ting</w>
we e▁k</w>
st abli
si▁ x</w>
si o▁n
re duced</w>
p▁lay ▁ed</w>
pr▁o v▁i
ong bu</w>
ol o
m▁a t▁ter</w>
m▁ i</w>
ma▁n a▁ger</w>
mak e▁r</w>
li f▁elong</w>
i▁c a</w>
iz ▁at▁ion</w>
evi dence</w>
dri ving</w>
c▁ r
compen s▁ation</w>
c cidents</w>
b a▁r
ac tual</w>
Reg a▁rding</w>
K az
Gover▁n men▁t</w>
&ap▁os; ▁t</w>
▁si k</w>
▁s inc
▁s ave</w>
▁r um
▁i cial</w>
▁eff icient</w>
▁co a▁ch</w>
▁cal ls</w>
▁a tiv▁e</w>
▁a ccidents</w>
▁B lue</w>
ye ol</w>
we e▁k
tio▁n ally</w>
th ea▁
re j
pro▁gr a▁ms</w>
pri sed</w>
or▁ der</w>
or ney</w>
not▁i f▁ied</w>
mer c▁h
medi u▁m</w>
gh t
fi er</w>
fac i▁li
f li
em be
ch a▁nge</w>
c a▁rd</w>
ati ent</w>
an▁a k</w>
al i▁ze</w>
adminis▁tr ative</w>
Viet nam</w>
Pl a▁n
M o▁t
C ▁ente▁r</w>
A▁ss embly</w>
▁th▁e m</w>
▁la unch</w>
▁i te▁
▁compl etely</w>
▁c ircum
▁a u▁se</w>
▁P al
wh ole</w>
tu ▁i
sh oul▁d</w>
sen s▁i
sem i</w>
sal ▁es</w>
r▁o se</w>
rel▁a t▁ion</w>
rec o▁r
re ments</w>
r ts</w>
r i▁cul
p▁ r▁o
pos ing</w>
pl▁ an▁ned</w>
organiz a▁tion▁s</w>
opp▁o sition</w>
oft en</w>
hi▁ story</w>
ge▁n e▁ral</w>
deter▁ min
c▁off ee</w>
con▁ sid
b▁ oth</w>
V a▁rious</w>
V al
Sept▁e mbe▁r</w>
Sec ur
P res
N at▁iona▁l</w>
E ach</w>
▁sel ect</w>
▁ra iny</w>
▁hear ing</w>
▁fun d▁s</w>
▁f o▁un▁d</w>
▁cre ating</w>
▁ch ▁
▁ch icken</w>
▁bea uty</w>
▁a ti▁ve</w>
▁a im</w>
w an▁t</w>
ul ti</w>
s▁u it</w>
r i▁ng</w>
l anguage</w>
institu▁ ti▁ons</w>
ici pal</w>
en▁ ding</w>
ec▁ tion</w>
e ight</w>
d ay
con ve▁r
ch▁ang ▁es</w>
ce an</w>
b i▁c
audi ence</w>
appo inted</w>
Y o▁u
M▁ar ch</w>
I s
▁w all</w>
▁tri▁ al</w>
▁sc ale</w>
▁own ers</w>
▁m iss</w>
▁con su
▁ba▁ sis</w>
▁a dult</w>
▁Feb ruary</w>
▁Co ast</w>
▁1 6th</w>
t▁ ons</w>
s ave</w>
s age</w>
qu esti
pr▁o mot
pro mote</w>
o▁n g▁ing</w>
or▁ ga▁n
n▁a r
man d▁a
lu ▁e</w>
lit ▁er
la red</w>
j▁o in▁ed</w>
i▁n ve▁
gen der</w>
d am</w>
conce▁r ning</w>
co ordin
S u▁ng</w>
S erv
M C</w>
G ood</w>
▁min or</w>
▁er r▁ed</w>
▁elec tric</w>
▁cen ters</w>
▁agen cies</w>
y l▁e</w>
u▁n til</w>
t▁ i</w>
tri▁l lion</w>
s▁ pr
sc e▁n
p▁ .</w>
n am▁e</w>
m▁a j
mat ▁er
i▁ci als</w>
investig▁a ting</w>
g▁r ou▁ps</w>
f▁orm ▁er</w>
esti▁m ate▁d</w>
er ▁y</w>
ear th▁
c▁l ass</w>
b ur▁
U i
G A</w>
Commi▁ ss▁ion</w>
▁sup porting</w>
▁s ▁ince</w>
▁pe o▁ple</w>
▁particip ation</w>
▁h imself</w>
▁b ut
te▁ ly</w>
reaso▁n able</w>
neces▁s ar▁y</w>
mainte▁n ance</w>
i▁n cr▁e
h ou▁se</w>
g ▁er</w>
el ed</w>
distrib▁u t▁ion</w>
d ju
confir med</w>
cele▁ br
ap▁pl ied</w>
acci dents</w>
S▁ch o▁ol</w>
Je on▁g</w>
H a▁n</w>
C en▁ter</w>
▁under standing</w>
▁con f
▁ch il▁d</w>
▁S K</w>
▁M ore</w>
▁L im</w>
▁G ames</w>
t▁ a</w>
ti m
sex ▁u
ric ▁e</w>
re struc
produc ▁ts</w>
prin▁ ci
o▁ il</w>
oll ar</w>
o sity</w>
lo ans</w>
l s▁o</w>
in su▁r
fa▁r ming</w>
cust▁om ers</w>
cit▁iz en▁s</w>
a▁ ded</w>
▁si▁gn s</w>
▁rem ov
▁mem ory</w>
▁loo ked</w>
▁know ledge</w>
▁g ▁i
▁di gital</w>
▁deci de</w>
▁Amer ica</w>
▁2 00</w>
▁ rap▁hs</w>
w▁a ke</w>
wa▁r ra▁nt</w>
tr ust</w>
st▁ ation</w>
r▁elev ant</w>
p▁ar t▁y</w>
pro▁ pe▁r
manu fa▁c
m u▁l
ini o▁n</w>
implem▁en ▁ted</w>
ha▁ ll</w>
fac▁i l▁ity</w>
e wing</w>
di▁scu▁ ss</w>
diffi▁cu▁l ty</w>
canc er</w>
T▁a e</w>
T ▁ru
Prof▁ess o▁r</w>
E urope</w>
1 19</w>
▁touri st</w>
▁scre en</w>
▁en ed</w>
▁bas ▁ed</w>
▁B o▁
z ation</w>
ud denly</w>
t▁ ari
tempor ▁a
stru g▁g
sh▁o wi▁ng</w>
sen g</w>
se ts</w>
sch oo▁l</w>
re▁ ma▁
refl ▁ec▁ted</w>
preh ensive</w>
ph o▁ne</w>
me▁ss ▁age</w>
l▁e ge</w>
li g▁h
l l▁
i▁ rit</w>
in depen▁dence</w>
gro wing</w>
el ▁e
dis▁ c
di d▁a
deter ior
con gr
colle▁c tion</w>
cer▁e mon▁y</w>
b▁ ank</w>
a▁b or</w>
arg ▁u
Se o▁
Ind▁u st▁ry</w>
H ▁an</w>
G M</w>
C are</w>
▁rece ipt</w>
▁plan ned</w>
▁pl a▁ns</w>
▁invest ors</w>
▁indu stries</w>
▁diffe ren
▁a ls▁o</w>
▁U.S .
▁K i▁m</w>
uc ks</w>
ser ies</w>
re▁ ven
qu ▁e</w>
pri va▁te</w>
p men▁t</w>
p ful</w>
own ers</w>
om b</w>
o x
n curred</w>
▁i ncurred</w>
mi▁ ss
litig ▁ation</w>
le ep</w>
k▁ ly</w>
im prove</w>
e▁ ating</w>
co▁r por
au l</w>
ass a▁
an▁ ch</w>
P S</w>
F▁o rest</w>
▁sh e
▁er gy</w>
▁Ph ilippines</w>
wh ol
vi▁ sit</w>
tra▁n sf
them s▁el
t ourn
stand ards</w>
smart▁ phone</w>
prot e▁ct▁ion</w>
n struc
mov ement</w>
inc▁lu ded</w>
in stru▁c
in cludi▁ng</w>
il legal</w>
f▁ o▁r
f▁ light</w>
exp an
eme▁r ging</w>
dom estic</w>
at▁ ure</w>
N▁a tiona▁l</w>
Je j▁u</w>
Com▁p a▁red</w>
C er
A c▁a
▁tak e▁n</w>
▁provi sions</w>
▁p it
▁del ayed</w>
▁cor rect</w>
▁c h▁a
▁bro ad
x per
ter al</w>
s▁i tu
ssi▁ a</w>
re▁sul t▁s</w>
oc k▁s</w>
l ay</w>
f▁or ▁ced</w>
fol k</w>
ey ▁es</w>
equi pment</w>
effici ▁ently</w>
du m</w>
dr i▁nking</w>
consid ▁erin▁g</w>
ci r▁
bil i▁ty</w>
ass y</w>
alog ue</w>
ag ▁r
acco▁un t▁ed</w>
ac ▁a
ac comp▁an
Th e
K wang</w>
A ▁pril</w>
9 6</w>
▁we e▁k</w>
▁ta▁ ste</w>
▁sh ▁
▁i nstruc
▁he▁ ld</w>
▁giv e▁n</w>
▁f u▁nds</w>
▁e xper
▁201▁ 6</w>
▁2 4th</w>
v▁i si▁on</w>
vi▁ sion</w>
su▁r g
sel ▁ec
sec u
sc▁h ool▁s</w>
p▁ol▁i ce</w>
po ss
ong ▁s</w>
fe▁ ren▁ce</w>
ed ge</w>
del e▁g
cul tiv
con sumers</w>
commi▁ ttee</w>
a▁c c▁ess</w>
al es</w>
ad j▁u
S oci
S i▁
In te
Af▁f ai▁rs</w>
5 ▁.
▁u nf
▁s t▁aff</w>
▁p ri▁
▁gu est</w>
▁auth ority</w>
▁T imes</w>
▁A fte▁r</w>
y▁o ur</w>
y m
w e▁d</w>
th east</w>
susp ▁ic
restr i▁c
resp▁on se</w>
represent a▁ti▁ves</w>
ren g▁
ra i▁n</w>
p o▁t
ma▁ ssive</w>
l▁ lion</w>
low e▁d</w>
intro▁ duc▁ed</w>
imp▁rov ed</w>
ici on</w>
h▁o t</w>
en▁g a▁ged</w>
d▁a rd</w>
dem y</w>
comm er
c ur▁rency</w>
bel o▁ng▁ing</w>
agre e▁ment</w>
O R
E un
D on▁g
Chi ef</w>
▁wor st</w>
▁vi▁ deo</w>
▁n ▁ot</w>
▁il led</w>
▁cla sses</w>
▁appo intment</w>
ve hicles</w>
v ings</w>
under▁st an▁d</w>
ti▁ mes</w>
s▁ou▁r ce</w>
sm al▁l</w>
slu▁gg ish</w>
pr▁e mium</w>
n oc
l▁a w▁
ly▁ mp
le▁av i▁ng</w>
h▁o ur</w>
he▁ ar</w>
fam▁i ly</w>
e▁ ments</w>
ext ingu
er ▁ing</w>
ent re
educ a▁tio▁n</w>
constru▁c ti▁on</w>
b▁u s</w>
bir ▁
auth o▁ri
2▁0 16</w>
▁viol ence</w>
▁some times</w>
▁repor tedly</w>
▁occ up
▁negoti ations</w>
▁h yun</w>
▁gl ass</w>
▁cont ro
vulne▁r able</w>
ti m▁es</w>
s tic
regi onal</w>
p▁o ints</w>
os en</w>
om ▁s</w>
mat▁e rial</w>
li qu
k▁es m▁an</w>
im ▁s</w>
gu ▁e</w>
f e▁l
establ▁i sh▁ed</w>
e ul</w>
den uclear
c▁l ear</w>
com▁pan ies</w>
N atio▁nal</w>
He o</w>
Gw an▁ak</w>
Cor p▁or
8 1</w>
▁r iver</w>
▁k no▁wn</w>
▁gener ation</w>
▁en ger</w>
▁de emed</w>
▁col lection</w>
▁bl ind</w>
▁a ged</w>
▁Su per
v▁e lo
re▁ al▁ity</w>
prov i▁n
oun ▁t</w>
k i
in ated</w>
g▁ram s</w>
fr an▁
et in▁g</w>
ep .</w>
c tivity</w>
▁a ctivity</w>
ap ers</w>
Sam s▁ung</w>
Pol ice</w>
O P</w>
K▁ o▁
J a</w>
▁t asks</w>
▁provi ding</w>
▁b i▁r
un avo
ud ent</w>
t▁ow a▁rd</w>
th us</w>
s▁tr u▁c
sanc ▁ti▁ons</w>
resi den▁ts</w>
o ir</w>
j▁udg e▁d</w>
i▁r s</w>
it i▁z
gen ▁ce</w>
e▁as ▁i
duc ting</w>
a▁gen da</w>
auth or
S ang
Ass o▁ci
▁st▁ ill</w>
▁recommen ded</w>
▁pro posed</w>
▁mar ried</w>
▁loc ▁al</w>
▁difficul ties</w>
▁a mid</w>
▁S ang</w>
we red</w>
veh▁i cle▁s</w>
un▁ ch</w>
s▁t e
s on▁g</w>
s inc▁e</w>
rel evant</w>
pr▁o gr▁am</w>
pro sp
prepar ▁ati▁on</w>
o de</w>
in▁ come</w>
en ger</w>
coun cil</w>
bec ▁
b l▁oc
al ties</w>
al i▁ng</w>
ad mi▁
Se▁ o</w>
O p▁er
J i▁n
H a▁ll</w>
Ec▁on o▁my</w>
A▁u gus▁t</w>
200 8</w>
▁se eing</w>
▁s ou
▁pro posal</w>
▁near by</w>
▁e xt
▁col ors</w>
▁clo sed</w>
▁c ▁an</w>
▁becom ing</w>
▁be ga▁n</w>
x ce
t▁iz ens</w>
th o▁u
spec▁i f▁ied</w>
r are</w>
pur ch
pol▁i ci▁es</w>
ma▁r k▁et</w>
lo ca▁
k e▁t
in▁ ning</w>
in▁ cr▁e
in▁ cludin▁g</w>
intel li▁gence</w>
in cident</w>
ear nest</w>
com▁pl e▁te</w>
c e▁l
bea uty</w>
F SS</w>
A ▁i
▁wat ched</w>
▁u sin▁g</w>
▁t opic</w>
▁t ext</w>
▁s i▁
▁des pite</w>
▁C ri
waren ess</w>
tom ▁or
th ou▁s
s▁t art</w>
s▁i▁gn ed</w>
proce▁dur ▁es</w>
pri ze</w>
op e▁n</w>
omen on</w>
oc k
lo ad</w>
f▁isc al</w>
envir on▁
diffe▁ rence</w>
conf▁ir med</w>
ca▁ mp
c ts</w>
a▁n ding</w>
ay a</w>
as er</w>
Y oo▁n</w>
W i▁
Tran▁ spo▁rt</w>
In v▁e
In ve
Gov▁ern o▁r</w>
G o▁d</w>
D▁i r▁ec
Ba ek
2▁ 2</w>
&a▁pos; ve</w>
▁lev ▁el</w>
▁depen ding</w>
▁A I</w>
we eks</w>
volun ▁te
veh▁i cles</w>
v acc
s▁t ore</w>
spor ▁t</w>
serv▁i ces</w>
r▁es ult</w>
r▁an ked</w>
res ources</w>
pr▁ic es</w>
pre pared</w>
ni a</w>
n etwork</w>
m▁a kin▁g</w>
m▁ oth▁er</w>
l▁ a▁
investig a▁tio▁n</w>
im pe
fo st
fa▁ shion</w>
e▁ at</w>
em e▁d</w>
ear▁ ly</w>
confe▁ renc▁e</w>
b a</w>
a▁l led</w>
av e▁r
all yu</w>
U. N.</w>
O S</w>
N o▁w</w>
Hy ▁e</w>
Fe br▁u
▁stat ement</w>
▁re plac
▁qu antity</w>
▁i den
▁g ra▁
▁en ess</w>
▁dra w</w>
▁concer n</w>
t▁ otal</w>
separ ▁a
sec on▁d</w>
s ongs</w>
s a▁ry</w>
restr ▁ic
pre▁ ad</w>
m▁e as
in side</w>
how▁e ver</w>
e▁ ment▁s</w>
e▁ mber</w>
ex▁pec t▁s</w>
dg ▁e</w>
develop▁ ment</w>
co▁n ce▁r
con▁ sider</w>
cont rove▁r
con v▁er
con sum
at▁e g
ati▁s tics</w>
am ▁a
W ▁in
J ▁in
J ong
Is▁ land</w>
I m</w>
▁say i▁ng</w>
▁c as▁es</w>
▁R ussian</w>
▁D evel
▁ sing</w>
th i▁nk</w>
s es
on▁ gs</w>
og le</w>
ma▁ il</w>
he▁ e</w>
gr i</w>
e ar▁ch</w>
dep uty</w>
cen▁t e▁red</w>
acc es
Univer s▁ity</w>
T▁ ra
T O</w>
Sec ▁u
L eg
D oo</w>
Ch ▁air
▁suc cessful</w>
▁sk y</w>
▁o wned</w>
▁le▁ ast</w>
▁e xce
▁P y
w▁e l▁l</w>
wor l▁d</w>
techn▁o log▁y</w>
ssi a</w>
ri st</w>
qu es</w>
ord ers</w>
h▁ ot
g r▁i
f▁i erce</w>
f▁amil ▁y</w>
ex▁p re▁ssed</w>
en▁t ru▁st</w>
consi▁ dered</w>
con d▁u
comm▁un ▁ity</w>
ca▁l led</w>
a▁te gic</w>
an cia▁l</w>
al bum</w>
aff ▁airs</w>
Hy o</w>
▁w at▁ch</w>
▁qu ali
▁l ar▁ge</w>
▁cre ation</w>
▁cl▁a ss</w>
▁Air port</w>
w▁a ve</w>
udi o</w>
tr illion</w>
ti ment</w>
stud ent</w>
st one</w>
s ound</w>
s n
re▁ am</w>
re▁ ach▁ed</w>
poli▁ ce</w>
o▁ log
os ystem</w>
ne arby</w>
l▁i o▁n</w>
inspec tion</w>
inc▁lud ▁es</w>
hou ses</w>
establis▁h m▁e▁nt</w>
ess a▁ry</w>
envir on▁ment</w>
commun ▁i
bec▁om ing</w>
b att
a▁c ks</w>
a▁ ims</w>
app y</w>
S i▁n
Gw angh
De▁ f
20 s</w>
▁sol ution</w>
▁quar ter</w>
▁p atient</w>
▁me aning</w>
▁hou ses</w>
▁2 7</w>
ve hicle</w>
uni que</w>
show s</w>
seco▁n dary</w>
p a▁ck
o▁t ed</w>
on c▁e</w>
n ity</w>
lit er
is es</w>
fu▁ tur▁e</w>
d▁e b
div▁i sion</w>
c▁re ase</w>
c▁o sts</w>
cir cul
atte▁n tion</w>
ap▁a r
appoin▁t m▁ent</w>
S e▁n
N ow</w>
M▁in i▁ster</w>
K B</w>
Am id</w>
&a▁pos; d</w>
▁tur e▁s</w>
▁str ategy</w>
▁pre vention</w>
▁organiz ed</w>
▁d u▁e</w>
▁C o▁urt</w>
▁An y</w>
tu ▁al</w>
o▁r ry</w>
jurisdi▁c t▁ion</w>
hou▁ se
gar tens</w>
f▁e es</w>
fire fig▁h
ec▁ h</w>
co▁ll ect</w>
con glom
ca▁ re
N▁or t▁h</w>
Administr ▁ati▁on</w>
3 D</w>
20▁1 7</w>
▁ri de</w>
▁requi re</w>
▁con trac
▁com mis
▁acc ur
▁F air</w>
▁2 3</w>
▁&▁a mp;</w>
w oul▁d</w>
w ild</w>
under g▁round</w>
s▁e c▁ond</w>
sec tion</w>
schol a▁r
rul e</w>
o▁th er▁s</w>
ou▁r ces</w>
nor mal</w>
m il▁lion</w>
im mediately</w>
fam ous</w>
exp and</w>
di e▁s</w>
cl▁ oth
b▁r a▁nch</w>
b its</w>
a▁n t
ati▁ on▁s</w>
P e▁
E P
A▁ siana</w>
6 ▁.
▁s c▁a
▁ro ads</w>
▁resp ect</w>
▁i ef</w>
▁f i▁led</w>
▁di ag
▁develop ing</w>
▁a dju
▁Sec urity</w>
▁K OS
ut ri
ur▁ ant</w>
re vi▁e
re ci
pro f▁es▁sor</w>
po s▁t
para▁ graph</w>
le▁ad i▁ng</w>
in j▁u
co▁n tr▁ol</w>
co▁ re</w>
condi t▁ions</w>
at u▁re</w>
act▁iv ity</w>
ack now
a sion</w>
O▁ff i▁ce</w>
Ge u▁n</w>
D i▁s
Cou▁n cil</w>
▁t each</w>
▁streng th</w>
▁pr inci
▁it▁e ms</w>
▁i sion</w>
▁foc used</w>
▁eff ort</w>
▁ ld</w>
we▁ aring</w>
v .</w>
t▁ own</w>
tt ▁ee</w>
t e▁l
s▁ udden</w>
su per▁
su m▁
str▁a t▁e
s in</w>
rec ▁or▁
oper ati▁on</w>
le▁ vel</w>
infor ma▁
ill ▁s</w>
h▁ wan</w>
exc es
d▁e ▁
ch e▁r</w>
b▁a sed</w>
busin▁e ss▁es</w>
bi▁ ll</w>
be g
b ul▁
ap ▁er</w>
ann▁o un▁ce</w>
Prosecu▁ tors</w>
O ▁r
Li b▁er
For tun
An▁ other</w>
A gre
, 6
▁wh ▁e
▁me a▁ns</w>
▁Pr▁i or</w>
ye ar▁s</w>
wea k
viol ence</w>
vi t▁y</w>
ve▁r sy</w>
sui▁t ab▁le</w>
secr▁e ta▁ry</w>
s c▁ri
s ad</w>
re▁ce▁ ipt</w>
pro▁ ce
pl▁e x</w>
ok ay</w>
n its</w>
▁u nits</w>
mon ▁etary</w>
me ters</w>
ma▁ ted</w>
l ar▁
gi▁n e
empha▁ size▁d</w>
el▁ ls</w>
ea▁ se</w>
den ▁
c▁om▁ ing</w>
cre▁ at▁ion</w>
con▁cer ns</w>
chair p▁ers▁on</w>
a▁pp▁e ar</w>
a▁m ou▁nt</w>
ap idly</w>
T ▁u
T w▁i
Se▁r vi▁ce</w>
Sept▁e mber</w>
J ang
G an▁gnam</w>
El eme▁ntary</w>
C r▁i
10 ▁
▁rou te</w>
▁r apidly</w>
▁o n▁
▁no ise</w>
▁m an▁y</w>
▁fin ally</w>
▁T i
▁F inance</w>
▁&a pos▁;
us sions</w>
ti▁ on▁s</w>
str a</w>
si t▁u
sen t▁i
secr▁e t▁ary</w>
sec ur▁ities</w>
s ook</w>
re▁ sc
res▁ea▁r ch</w>
off▁i ci
n▁e g
m▁a ll</w>
insti▁ tu
ici a▁l</w>
f▁un ds</w>
esta▁b l▁i
e an</w>
d ney</w>
a▁s ▁ed</w>
app▁rov al</w>
an▁a ly
Ja▁n uary</w>
B l▁ue</w>
▁wi de</w>
▁w eak</w>
▁si t▁e</w>
▁p aying</w>
▁as king</w>
▁accoun ts</w>
▁N o
▁E mplo
▁B ur
▁ ss</w>
s▁mo oth</w>
ran ds</w>
pro motion</w>
o▁t h</w>
o▁n gs</w>
ot▁ ing</w>
l a▁r
j e▁on</w>
incu▁ mbent</w>
g▁ l
ex▁ pl
ent ▁er
di u▁m</w>
c▁a us▁ed</w>
con▁tr a▁ct</w>
as t▁ruc
There▁ fo▁re</w>
▁st▁ ore</w>
▁neg ative</w>
▁l ose</w>
▁l au
▁kil led</w>
▁canc el</w>
▁beli eves</w>
▁E urope</w>
▁C C
we b▁
provi▁ de</w>
parag ▁rap▁hs</w>
o▁ff ▁i▁ce</w>
ow ner</w>
n o▁r
lea ding</w>
i▁l t</w>
ff i▁c</w>
ep ▁i
ead line</w>
cond▁i t▁ion</w>
clo sure</w>
b ot▁h</w>
Reg ▁ional</w>
O▁ h</w>
Min▁i stry</w>
E u▁n</w>
Constitu t▁ional</w>
▁v eg
▁sh oes</w>
▁pres entation</w>
▁g oo▁d</w>
▁fi shing</w>
▁e ting</w>
▁c e▁d</w>
▁H ar
▁ ver</w>
vi▁ si▁
viron ment</w>
s▁ub way</w>
s▁tr on▁g</w>
st a▁te</w>
sc ▁ience</w>
s la
pr▁o gra▁m</w>
pla▁y ers</w>
pl at▁
p yo</w>
mpl ▁e</w>
mov ed</w>
mou▁n tain</w>
li ▁er</w>
g am
f▁am o▁us</w>
et e▁d</w>
d▁e g▁ree</w>
c▁our se</w>
a▁c ti
an▁ cial</w>
W o
S BS</w>
He ung</w>
Gwa▁ng ju</w>
F TC</w>
Co▁ mp
, 3
▁de▁ci ded</w>
▁K i</w>
▁A b▁out</w>
writ ing</w>
t▁i me▁s</w>
pre di▁c
om e▁
h otel</w>
ea▁r n</w>
dis▁ count</w>
d u</w>
c▁lu ding</w>
cooper ▁at▁ion</w>
cl i▁n
c al▁l</w>
be h▁a
b anks</w>
a▁gre e▁d</w>
att ack</w>
arch itec
Il bo</w>
H ome</w>
Gang s▁eo</w>
Co▁m m▁ittee</w>
▁s ea▁
▁p s</w>
▁f erry</w>
▁dis h</w>
▁c ▁o
▁Sh ould</w>
▁N ot</w>
w t▁h</w>
vi g
t▁ ae</w>
ti me▁s</w>
te▁ ach
t est▁i
st e▁rs</w>
s ays</w>
res e▁
que▁s t▁ion</w>
pro▁vi de▁d</w>
po▁ wer</w>
pl▁a ying</w>
p age</w>
oc▁ ks</w>
mat h</w>
im ming</w>
go i▁ng</w>
f▁ ra
fi es</w>
fa▁c t</w>
e▁n ti▁al</w>
en ▁cy</w>
el ▁i
con ver▁
ch a▁rg
at el▁y</w>
ab use</w>
Ordin▁ anc▁e</w>
▁s inger</w>
▁or y</w>
▁implemen ted</w>
▁dev ice</w>
▁bel ▁ow</w>
▁T r▁ump</w>
▁L ine</w>
tou▁ri sts</w>
th roug▁h</w>
t a▁rg
s▁el ect</w>
succ▁e e▁ded</w>
sub sidi
sel ected</w>
re pre▁sen
pro b▁l
pos iti▁on</w>
perm▁an ent</w>
n ature</w>
mat▁ ch</w>
econ ▁o
d▁a ma▁ge</w>
co▁ncer t</w>
consi▁ der▁ed</w>
condu▁c ting</w>
col or</w>
ca▁l li▁ng</w>
c ks</w>
a▁ z
ar▁ ks</w>
a to</w>
S ▁un</w>
E du▁c
7 ▁.
▁interpre ted</w>
▁exec utive</w>
▁dro p</w>
▁de posit</w>
▁con flict</w>
▁a ware</w>
wi▁n ning</w>
vi val</w>
un d▁s</w>
uc tu
t▁i▁ me</w>
th▁o ught</w>
star ted</w>
st ood</w>
prod▁uc t▁s</w>
pla▁t form</w>
n uc
m e▁nt
li▁ brary</w>
il and</w>
cri tici
a▁c t▁ive</w>
Je on
Di rector</w>
▁u sage</w>
▁s now</w>
▁s ession</w>
▁entru sted</w>
▁e ase</w>
▁connec tion</w>
▁clear ly</w>
▁c o▁urt</w>
▁au d▁it</w>
t▁a in▁ed</w>
tog e▁ther</w>
ser▁ vic▁e</w>
p▁o lic▁y</w>
pres▁en ▁ted</w>
pos ▁e</w>
org▁an i▁ze</w>
on ent</w>
ma them
le▁ ge</w>
k yung</w>
in g▁
fa i
experi▁en ced</w>
exa▁m p▁le</w>
en cour
count▁ri e▁s</w>
c tors</w>
b ang</w>
ad ic
W elfare</w>
S po
N o▁r
K inder
Gye o▁ngnam</w>
▁p ush</w>
▁d ead</w>
▁a bl▁e</w>
▁A ctress</w>
▁3 1</w>
▁2 2nd</w>
x port</w>
wa▁l king</w>
t▁he i▁r</w>
sho▁ w
se ar
s lo▁w
resid ▁ent▁s</w>
regis▁t e▁red</w>
pre p▁a
pa▁ in</w>
parti▁ci▁p at▁ed</w>
p ti▁on</w>
in▁t en
gre en</w>
fu▁ nd</w>
for mance</w>
fi elds</w>
e▁ a
expecta▁ tio▁ns</w>
evalu ation</w>
di dn</w>
def ense</w>
c▁a ught</w>
cr▁e ated</w>
co▁nc er▁n</w>
b a▁n</w>
So▁ ci
B u▁t</w>
,0 0
▁reven ue</w>
▁o n▁e</w>
▁o bserv
▁medic ine</w>
▁me thods</w>
▁la ws</w>
▁j ur
▁foc using</w>
▁f oundation</w>
▁e xport</w>
▁beli eved</w>
we ekend</w>
us▁ ing</w>
s▁p ace</w>
re du▁ction</w>
p▁ p
nol ▁o
l▁ in▁
k no▁wn</w>
h▁e at</w>
he▁ aring</w>
equi▁p me▁nt</w>
d ated</w>
const▁ruc tion</w>
be er</w>
at edly</w>
ar my</w>
al y▁
air ▁c
acc ▁ur
Y a▁ng</w>
Ordi▁n a▁nce</w>
O E
M S</w>
L otte</w>
Jo hn</w>
In▁ st▁itute</w>
I r▁an
I I</w>
H▁ ong</w>
Ger many</w>
G ▁or
▁wom ▁an</w>
▁bir thday</w>
▁T ai
▁E un</w>
▁Al s▁o</w>
struc ▁tur▁e</w>
ste▁ ad
sa▁ le</w>
s ati▁s
r▁e al</w>
ri sing</w>
re▁as on</w>
re▁ duced</w>
re s▁tr
r ticle</w>
▁a rticle</w>
multicul ▁tural</w>
mi▁ c</w>
m ech
in com▁e</w>
il er</w>
ic ▁ultural</w>
h▁o lds</w>
g▁a ti▁on</w>
f▁ ini
enter prises</w>
d▁u ty</w>
dur ▁ing</w>
de▁ mand</w>
col ▁on
b▁udg e▁t</w>
b▁ec ▁ome</w>
b ru
a▁b ou▁t</w>
atis tics</w>
Y o▁ng</w>
O k
O C</w>
B▁u s
Bud▁d hist</w>
&a▁pos▁; ll</w>
▁we ek
▁so lid</w>
▁iz ation</w>
▁g old</w>
▁environ mental</w>
▁cou ple</w>
▁acc ept</w>
▁a rts</w>
▁S inger</w>
▁S ing
▁Dae jeon</w>
▁Cul ture</w>
s▁ pen
sor ry</w>
pr▁oce e▁d</w>
po▁ litical</w>
or mal</w>
op y</w>
o li
memb ▁er</w>
manag er</w>
i▁ ting</w>
iv ▁er</w>
imp act</w>
ili▁ ties</w>
hyd▁ro gen</w>
fe e▁l
d▁oub le</w>
col ▁or
af ter
W o▁n</w>
F▁a m
Educ ▁atio▁n</w>
Com m▁itte▁e</w>
C ▁ultural</w>
C i▁
C hae</w>
An ti</w>
, 4
▁l ines</w>
▁f ruit</w>
▁expen sive</w>
▁co▁ sts</w>
▁com fortable</w>
▁T ha
▁Sta t▁e</w>
▁Res earch</w>
▁F estival</w>
wat▁ chi▁ng</w>
volun t▁ar
tra▁ de</w>
ta in▁
sol ▁d</w>
say i▁ng</w>
pa▁r e▁nts</w>
m▁o vi
mer ce</w>
le▁ad ▁ing</w>
govern ments</w>
g lo▁
educ ▁atio▁n</w>
c▁om i▁ng</w>
c▁o mb
co▁nt a▁ct</w>
con su▁m
b▁ o▁
ar ▁o
acc▁oun ▁ts</w>
N ▁i
Ind▁u strial</w>
Environ m▁ental</w>
Agricul ▁ture</w>
2▁ 4</w>
▁sm al▁l</w>
▁ran king</w>
▁noti fy</w>
▁n ormal</w>
▁loo k▁s</w>
▁determin e</w>
▁cre am</w>
▁cor rec
▁character istics</w>
▁bo yfriend</w>
▁aga▁ in</w>
▁N i
▁Dec ember</w>
w▁e l
vis▁i to▁rs</w>
s▁ pre▁ad</w>
st▁ or</w>
st able</w>
some▁ thin▁g</w>
se▁ a</w>
sa▁ fety</w>
pr i▁ce</w>
p any</w>
ow on</w>
mil li▁on</w>
i▁ ssue</w>
ici ary</w>
e q▁u
daem ▁un</w>
ch a▁irm▁an</w>
b oo▁
b jec
as sion</w>
T ▁i
T h▁ere</w>
Ordin▁ ance</w>
Gw an▁g
F o▁r
B ud
▁t ask</w>
▁rem ar
▁o ve▁r</w>
▁fil led</w>
▁f i▁l
▁d ea
▁bloc kchain</w>
▁b ▁y</w>
▁J ust</w>
▁Gw ang
wom ▁en</w>
th o▁se</w>
th o▁d</w>
scre ▁ening</w>
sch▁e d▁ule</w>
sa fe▁ty</w>
s ult</w>
ra ther</w>
pro▁ mi▁
or▁ i</w>
or▁ ganiz
oot ing</w>
n t
lab ▁or</w>
in▁ du
in t▁ro
id e▁nti
do▁ ub
di▁sc uss</w>
co▁mpl ▁e
cla▁ im
bo y</w>
beli ▁e
a▁ th
R i▁
O p
M▁in istry</w>
Ar▁ ticl▁e</w>
▁s tic
▁resp ond</w>
▁r uns</w>
▁m ountain</w>
▁den uclearization</w>
▁cam p</w>
▁c lient</w>
▁be▁c au▁se</w>
▁b ranch</w>
▁app eared</w>
▁Nov ember</w>
▁Al▁ so</w>
x cept</w>
v▁i s▁i
vio▁l ence</w>
u▁s sion</w>
us ▁e
tot ▁al</w>
tea ms</w>
te gy</w>
s▁t anding</w>
s▁h a▁
s▁e n</w>
str ▁o
read ing</w>
p▁ yeong</w>
orga▁n iz
mate▁r i▁als</w>
li ons</w>
le▁ y</w>
il ize</w>
g t;</w>
d▁ ra▁
duc ▁ts</w>
d ic▁
a▁t ure</w>
atis fied</w>
a .▁m.</w>
P ▁h
M▁ E
M A</w>
J▁e ju</w>
&▁a▁ pos;s</w>
▁s l
▁promot ing</w>
▁even ing</w>
▁enter prises</w>
▁e xcept</w>
▁T ell</w>
▁3 0
tom o▁r
s▁e le▁ct</w>
s an▁
re▁ po▁rts</w>
recog▁n i▁zed</w>
qu ali▁ty</w>
o▁ day</w>
m on▁g</w>
loc▁a tion</w>
i▁ss▁u es</w>
i▁n e▁d</w>
istr ▁y</w>
h o▁n
g▁ lob
f▁ic ation</w>
eff ects</w>
ec o
d▁e si▁gn</w>
c▁h o</w>
consi▁ de▁
ca fe</w>
c il
busi▁n es▁s</w>
bec a▁use</w>
b ak</w>
a▁m ed</w>
ad▁v ance</w>
S ▁ing
R ights</w>
Intern at▁iona▁l</w>
Con feder
CC TV</w>
2 50</w>
▁th ank</w>
▁a sed</w>
w▁ on
wa▁ it</w>
w a▁n
ven e</w>
v ation</w>
ti▁c le</w>
th e▁rn</w>
st reet</w>
r▁e qu
r▁e at</w>
p▁l a▁n</w>
p il</w>
new ly</w>
m▁a t
m▁a i▁n
govern▁ men▁ts</w>
ga▁ ining</w>
ex▁p o▁rts</w>
ext e▁ns▁ion</w>
en d▁
difficul ties</w>
c▁a l▁led</w>
c▁ a▁n</w>
co▁nt ac▁t</w>
atte▁n ti▁on</w>
app▁l yi▁ng</w>
ail ▁y</w>
a verage</w>
Y outh</w>
N et
M ay▁or</w>
A R</w>
▁recogn ized</w>
▁mean ingful</w>
▁k new</w>
▁f ried</w>
▁eli gible</w>
▁compen sation</w>
▁b ic
▁appro priate</w>
▁Wor l▁d</w>
▁F ire</w>
▁2 ,000</w>
th ▁ink</w>
s▁tud ▁ents</w>
sy▁st ▁em</w>
s am
ri▁ ghts</w>
ri s
regi ons</w>
pl ays</w>
ope▁r ated</w>
j u▁ng</w>
i▁ ously</w>
h eavy</w>
gh ▁t
f▁ol l▁ow</w>
exi s▁t
e tic</w>
cul ▁tur▁al</w>
con▁t in▁ue</w>
compens▁a ti▁on</w>
broad c▁a
Sch ol
R a
Pr▁o vid▁ed</w>
N A</w>
D▁a y</w>
▁wal king</w>
▁ven ▁ue</w>
▁t or▁s</w>
▁t ex
▁s ▁
▁re stric
▁k ids</w>
▁cla ss
▁can didate</w>
▁Sec retary</w>
▁2 6</w>
t ati▁on</w>
pro vided</w>
ord e▁r</w>
ne▁ g
mo▁ tion</w>
mi ssed</w>
l▁e y</w>
low ▁s</w>
in▁ ds</w>
id dle</w>
h▁and e▁d</w>
expec t▁ed</w>
com pe▁
ch▁ang e▁d</w>
a▁ ft▁er</w>
a▁ ched</w>
accum u▁l
T own</w>
Se jong</w>
R A</w>
P▁e ople</w>
F i▁
D S</w>
D MZ</w>
▁ur ch</w>
▁touri sts</w>
▁ref er</w>
▁improv ed</w>
▁i ll
▁hi stor
▁M ic
▁C ent
▁An alysts</w>
w▁i dely</w>
wa▁ ter</w>
v▁a te</w>
tax es</w>
syst e▁m</w>
sub m▁itted</w>
su k</w>
se t▁t
s in▁g
r▁e ve▁
req▁ui res</w>
ques tions</w>
pr▁o▁ vide</w>
preve▁n t▁ion</w>
op po▁r
lea st</w>
inv▁o l
institu t▁ional</w>
g i▁ng</w>
e▁ mpl
er▁ many</w>
equiv ▁a
corpor ▁ation</w>
con▁ta ins</w>
con▁ f
Re▁ p.</w>
M ot
L▁e ague</w>
Electr▁on i▁cs</w>
30 s</w>
▁w asn</w>
▁v enture</w>
▁sm ile</w>
▁sch ol
▁m outh</w>
▁lim its</w>
▁fore igners</w>
▁expan sion</w>
▁emb ly</w>
▁a b▁le</w>
▁S ma▁ll</w>
vac ation</w>
suppl eme▁ntary</w>
or▁ de▁red</w>
nu▁ mber</w>
neigh b▁or
lo ok
li a▁
kil om▁e
i▁s▁ sued</w>
ge un</w>
g u▁
e▁ sts</w>
ear ▁n
d▁e put▁y</w>
cre▁ ating</w>
an▁a m</w>
aff ▁ec▁ted</w>
T▁ru m▁p</w>
Sou t▁heast</w>
Sh i▁n</w>
M▁u s▁eum</w>
C ▁up</w>
Af▁ ric
▁tar get</w>
▁i sm</w>
▁e specially</w>
▁an ▁n
▁E ach</w>
w▁h a▁t</w>
ter i
sul ▁a</w>
st▁or age</w>
st ro
sc▁i en▁ce</w>
s ar▁y</w>
r▁i ve</w>
r▁ais e▁d</w>
rece▁iv i▁ng</w>
qu ir
me s▁s
limit ed</w>
inst ead</w>
innov ▁ation</w>
in surance</w>
in cluded</w>
im pri
h ar▁
fo ot
fil ed</w>
e▁ yes</w>
ex▁ pla
emen▁t ary</w>
di▁ um</w>
c▁ ks</w>
co▁ mb
comm on</w>
chil▁d re▁n</w>
bu ild</w>
back g▁ro▁und</w>
ag▁a ins▁t</w>
ac▁co▁r di▁ng</w>
acc▁i d▁ent</w>
Off ▁ice</w>
Ko▁re a▁ns</w>
E spec▁i
C▁ hair
Can d▁i
2▁0 ,000</w>
▁u ▁sing</w>
▁t▁h ink</w>
▁st ories</w>
▁st ars</w>
▁po si
▁p ension</w>
▁con serv
▁c l▁e
▁P r▁o
▁Ch ung
t▁a▁ king</w>
transf ▁er▁red</w>
ta▁ ge</w>
s▁u m▁mit</w>
ss age</w>
se▁ ll</w>
sec ▁re
re▁ venue</w>
rev▁e a▁led</w>
re al▁i
pr▁i vat▁e</w>
po lita▁n</w>
ph▁ one</w>
pa s▁
on omy</w>
m u</w>
im mi
fav▁or ite</w>
d▁o or</w>
co▁n d▁uct</w>
consul ta▁
ch e▁mical</w>
c u▁se</w>
T ur
St a▁tion</w>
S un▁
Prov ▁in▁ce</w>
Ja▁nu ▁ary</w>
Jan ▁u
In▁ cheo▁n</w>
▁w ed
▁sh ot</w>
▁say ▁ing</w>
▁o ci
▁bo y</w>
▁a imed</w>
▁19 9▁
y▁ one</w>
t▁i v▁e</w>
t▁h em
soc▁i ety</w>
se al</w>
s ource</w>
or ▁ity</w>
men u</w>
f▁ loor</w>
even t▁ually</w>
d▁eci de</w>
co▁n c▁ept</w>
c ro▁
a▁g e▁d</w>
a▁c ce▁pt</w>
a t▁s</w>
Gyeo▁ng buk</w>
Deliber ▁ation</w>
Ch u▁n
2▁0 s</w>
▁tou ch</w>
▁sec tion</w>
▁roo▁ m</w>
▁re a▁ch</w>
▁pl atform</w>
▁i ▁n
▁gro wn</w>
▁cl oud</w>
▁be▁ ing</w>
▁be ach</w>
▁b ▁ut</w>
▁au▁ dit</w>
▁Y u</w>
▁W e
va▁ri ou▁s</w>
ur c▁h</w>
t▁ arg
so▁me one</w>
sh r
se▁ ong</w>
recrui▁t ment</w>
reas on
min im
mai▁n tain</w>
l▁i sted</w>
j a
intern ▁ational</w>
h am
gi onal</w>
fi▁l m</w>
f ra▁
e▁x t
e▁v e▁nts</w>
ex▁ po▁sed</w>
con▁si▁ sts</w>
c ru
ber y</w>
P▁o p</w>
Gwang j▁in</w>
G a
Chair man</w>
▁tak ▁en</w>
▁rul e</w>
▁not ice</w>
▁me et▁ing</w>
▁f oun
▁f a▁c
▁b ar
▁S cience</w>
▁P ort</w>
v▁i si▁
u▁r t</w>
t▁h ink</w>
re▁c o▁rds</w>
pr▁ovi d▁e</w>
pro▁v i▁nce</w>
pro b
por ters</w>
pi▁c t▁ure</w>
or ary</w>
mo▁n ths</w>
l▁o ok
la t▁ion</w>
inst all
g▁a te</w>
fa▁il ▁ure</w>
f air
e▁x c▁ept</w>
d▁o es</w>
de ed</w>
d ship</w>
con▁t ents</w>
[...]
